{
  "version": "1.0",
  "truncation": null,
  "padding": {
    "strategy": "BatchLongest",
    "direction": "Right",
    "pad_to_multiple_of": null,
    "pad_id": 0,
    "pad_type_id": 0,
    "pad_token": "[PAD]"
  },
  "added_tokens": [
    {
      "id": 0,
      "content": "[UNK]",
      "single_word": false,
      "lstrip": false,
      "rstrip": false,
      "normalized": false,
      "special": true
    },
    {
      "id": 1,
      "content": "[PAD]",
      "single_word": false,
      "lstrip": false,
      "rstrip": false,
      "normalized": false,
      "special": true
    },
    {
      "id": 2,
      "content": "[CLS]",
      "single_word": false,
      "lstrip": false,
      "rstrip": false,
      "normalized": false,
      "special": true
    },
    {
      "id": 3,
      "content": "[SEP]",
      "single_word": false,
      "lstrip": false,
      "rstrip": false,
      "normalized": false,
      "special": true
    },
    {
      "id": 4,
      "content": "[MASK]",
      "single_word": false,
      "lstrip": false,
      "rstrip": false,
      "normalized": false,
      "special": true
    }
  ],
  "normalizer": {
    "type": "Sequence",
    "normalizers": [
      {
        "type": "NFD"
      },
      {
        "type": "Lowercase"
      },
      {
        "type": "StripAccents"
      }
    ]
  },
  "pre_tokenizer": {
    "type": "BertPreTokenizer"
  },
  "post_processor": {
    "type": "TemplateProcessing",
    "single": [
      {
        "SpecialToken": {
          "id": "[CLS]",
          "type_id": 0
        }
      },
      {
        "Sequence": {
          "id": "A",
          "type_id": 0
        }
      },
      {
        "SpecialToken": {
          "id": "[SEP]",
          "type_id": 0
        }
      }
    ],
    "pair": [
      {
        "SpecialToken": {
          "id": "[CLS]",
          "type_id": 0
        }
      },
      {
        "Sequence": {
          "id": "A",
          "type_id": 0
        }
      },
      {
        "SpecialToken": {
          "id": "[SEP]",
          "type_id": 0
        }
      },
      {
        "Sequence": {
          "id": "B",
          "type_id": 1
        }
      },
      {
        "SpecialToken": {
          "id": "[SEP]",
          "type_id": 1
        }
      }
    ],
    "special_tokens": {
      "[CLS]": {
        "id": "[CLS]",
        "ids": [
          2
        ],
        "tokens": [
          "[CLS]"
        ]
      },
      "[SEP]": {
        "id": "[SEP]",
        "ids": [
          3
        ],
        "tokens": [
          "[SEP]"
        ]
      }
    }
  },
  "decoder": {
    "type": "WordPiece",
    "prefix": "##",
    "cleanup": true
  },
  "model": {
    "type": "WordPiece",
    "unk_token": "[UNK]",
    "continuing_subword_prefix": "##",
    "max_input_chars_per_word": 100,
    "vocab": {
      "[UNK]": 0,
      "[PAD]": 1,
      "[CLS]": 2,
      "[SEP]": 3,
      "[MASK]": 4,
      "!": 5,
      "&": 6,
      "'": 7,
      "(": 8,
      ")": 9,
      "*": 10,
      ",": 11,
      "-": 12,
      ".": 13,
      "0": 14,
      "1": 15,
      "2": 16,
      "3": 17,
      "4": 18,
      "5": 19,
      "7": 20,
      "8": 21,
      ":": 22,
      ";": 23,
      "?": 24,
      "a": 25,
      "b": 26,
      "c": 27,
      "d": 28,
      "e": 29,
      "f": 30,
      "g": 31,
      "h": 32,
      "i": 33,
      "j": 34,
      "k": 35,
      "l": 36,
      "m": 37,
      "n": 38,
      "o": 39,
      "p": 40,
      "q": 41,
      "r": 42,
      "s": 43,
      "t": 44,
      "u": 45,
      "v": 46,
      "w": 47,
      "x": 48,
      "y": 49,
      "z": 50,
      "|": 51,
      "☔": 52,
      "❄": 53,
      "##n": 54,
      "##c": 55,
      "##o": 56,
      "##u": 57,
      "##r": 58,
      "##a": 59,
      "##g": 60,
      "##e": 61,
      "##d": 62,
      "##s": 63,
      "##i": 64,
      "##v": 65,
      "##f": 66,
      "##p": 67,
      "##b": 68,
      "##y": 69,
      "##t": 70,
      "##z": 71,
      "##q": 72,
      "##m": 73,
      "##x": 74,
      "##h": 75,
      "##l": 76,
      "##j": 77,
      "##k": 78,
      "##w": 79,
      "##0": 80,
      "##4": 81,
      "##ro": 82,
      "##ng": 83,
      "##he": 84,
      "##nd": 85,
      "the": 86,
      "po": 87,
      "##ing": 88,
      "and": 89,
      "##re": 90,
      "##oo": 91,
      "##roro": 92,
      "pororo": 93,
      "##dy": 94,
      "to": 95,
      "##es": 96,
      "##ar": 97,
      "is": 98,
      "##rong": 99,
      "crong": 100,
      "ed": 101,
      "eddy": 102,
      "loo": 103,
      "##is": 104,
      "##er": 105,
      "##at": 106,
      "##et": 107,
      "##ed": 108,
      "##py": 109,
      "##it": 110,
      "##ow": 111,
      "loopy": 112,
      "in": 113,
      "##ll": 114,
      "##ou": 115,
      "##by": 116,
      "poby": 117,
      "##ri": 118,
      "##le": 119,
      "on": 120,
      "##nt": 121,
      "##nds": 122,
      "wit": 123,
      "with": 124,
      "##ry": 125,
      "##on": 126,
      "his": 127,
      "##ty": 128,
      "ro": 129,
      "##ea": 130,
      "are": 131,
      "pet": 132,
      "petty": 133,
      "sn": 134,
      "snow": 135,
      "##ks": 136,
      "##ay": 137,
      "st": 138,
      "of": 139,
      "##hi": 140,
      "har": 141,
      "ha": 142,
      "fri": 143,
      "harry": 144,
      "frie": 145,
      "##se": 146,
      "##ac": 147,
      "##or": 148,
      "friends": 149,
      "rody": 150,
      "##ve": 151,
      "##om": 152,
      "##id": 153,
      "as": 154,
      "##in": 155,
      "th": 156,
      "##en": 157,
      "##ur": 158,
      "##to": 159,
      "##ut": 160,
      "at": 161,
      "##ly": 162,
      "##rou": 163,
      "##st": 164,
      "##gh": 165,
      "ta": 166,
      "##king": 167,
      "##an": 168,
      "wa": 169,
      "fro": 170,
      "tong": 171,
      "##tong": 172,
      "tongtong": 173,
      "##ic": 174,
      "##ir": 175,
      "hou": 176,
      "house": 177,
      "##ld": 178,
      "be": 179,
      "sh": 180,
      "co": 181,
      "##all": 182,
      "##hing": 183,
      "bl": 184,
      "##round": 185,
      "##ot": 186,
      "car": 187,
      "##her": 188,
      "##red": 189,
      "sk": 190,
      "##ver": 191,
      "##ion": 192,
      "that": 193,
      "whi": 194,
      "##ra": 195,
      "##ide": 196,
      "pl": 197,
      "for": 198,
      "sur": 199,
      "say": 200,
      "##and": 201,
      "se": 202,
      "##lo": 203,
      "##ght": 204,
      "##ead": 205,
      "##ad": 206,
      "while": 207,
      "##ris": 208,
      "sm": 209,
      "##pp": 210,
      "ex": 211,
      "##as": 212,
      "##ook": 213,
      "som": 214,
      "ho": 215,
      "##ch": 216,
      "##el": 217,
      "sky": 218,
      "it": 219,
      "there": 220,
      "##ke": 221,
      "##ue": 222,
      "##im": 223,
      "##il": 224,
      "##pris": 225,
      "surpris": 226,
      "##res": 227,
      "red": 228,
      "by": 229,
      "##hes": 230,
      "up": 231,
      "her": 232,
      "sp": 233,
      "##vered": 234,
      "out": 235,
      "covered": 236,
      "hold": 237,
      "fi": 238,
      "blue": 239,
      "##un": 240,
      "##ous": 241,
      "##ent": 242,
      "##ell": 243,
      "looks": 244,
      "##out": 245,
      "from": 246,
      "##ig": 247,
      "##fu": 248,
      "snowy": 249,
      "ca": 250,
      "##oor": 251,
      "ch": 252,
      "##ers": 253,
      "head": 254,
      "fo": 255,
      "##ear": 256,
      "tal": 257,
      "tre": 258,
      "##ag": 259,
      "go": 260,
      "##ce": 261,
      "dis": 262,
      "##ight": 263,
      "fl": 264,
      "ab": 265,
      "they": 266,
      "##ack": 267,
      "says": 268,
      "##ting": 269,
      "##ves": 270,
      "somet": 271,
      "##ck": 272,
      "##ble": 273,
      "hand": 274,
      "something": 275,
      "an": 276,
      "##ts": 277,
      "so": 278,
      "su": 279,
      "##ill": 280,
      "com": 281,
      "wh": 282,
      "##ace": 283,
      "front": 284,
      "bo": 285,
      "play": 286,
      "their": 287,
      "##ain": 288,
      "##ies": 289,
      "##ood": 290,
      "about": 291,
      "##int": 292,
      "##own": 293,
      "around": 294,
      "##ft": 295,
      "##ps": 296,
      "##us": 297,
      "##hind": 298,
      "behind": 299,
      "door": 300,
      "looking": 301,
      "down": 302,
      "smil": 303,
      "cle": 304,
      "con": 305,
      "la": 306,
      "sa": 307,
      "fis": 308,
      "##ark": 309,
      "clo": 310,
      "##kes": 311,
      "toy": 312,
      "##ches": 313,
      "##urn": 314,
      "surprised": 315,
      "##oy": 316,
      "ar": 317,
      "hands": 318,
      "re": 319,
      "##one": 320,
      "##ate": 321,
      "##ets": 322,
      "fore": 323,
      "stand": 324,
      "do": 325,
      "sha": 326,
      "trees": 327,
      "table": 328,
      "cat": 329,
      "gre": 330,
      "sit": 331,
      "##um": 332,
      "exp": 333,
      "##ard": 334,
      "##ful": 335,
      "wat": 336,
      "cu": 337,
      "book": 338,
      "##ca": 339,
      "him": 340,
      "##ving": 341,
      "back": 342,
      "##al": 343,
      "holding": 344,
      "cook": 345,
      "##ie": 346,
      "forest": 347,
      "wal": 348,
      "sl": 349,
      "##ses": 350,
      "ball": 351,
      "##ms": 352,
      "##ation": 353,
      "turn": 354,
      "##ther": 355,
      "aw": 356,
      "he": 357,
      "them": 358,
      "##est": 359,
      "ne": 360,
      "cl": 361,
      "gat": 362,
      "clear": 363,
      "run": 364,
      "pig": 365,
      "##ning": 366,
      "op": 367,
      "##side": 368,
      "but": 369,
      "ey": 370,
      "see": 371,
      "dra": 372,
      "##lly": 373,
      "al": 374,
      "sc": 375,
      "talking": 376,
      "rea": 377,
      "curi": 378,
      "open": 379,
      "##nder": 380,
      "##get": 381,
      "ground": 382,
      "##pe": 383,
      "other": 384,
      "ma": 385,
      "asks": 386,
      "not": 387,
      "holds": 388,
      "standing": 389,
      "all": 390,
      "##ct": 391,
      "star": 392,
      "app": 393,
      "##vers": 394,
      "##gg": 395,
      "de": 396,
      "en": 397,
      "##ess": 398,
      "##ind": 399,
      "##very": 400,
      "into": 401,
      "wor": 402,
      "bed": 403,
      "ga": 404,
      "toget": 405,
      "has": 406,
      "together": 407,
      "exc": 408,
      "curious": 409,
      "ag": 410,
      "##ward": 411,
      "gather": 412,
      "##ure": 413,
      "throu": 414,
      "through": 415,
      "look": 416,
      "##me": 417,
      "##hin": 418,
      "##ious": 419,
      "face": 420,
      "excit": 421,
      "wood": 422,
      "no": 423,
      "##ings": 424,
      "tut": 425,
      "tutu": 426,
      "away": 427,
      "every": 428,
      "##co": 429,
      "talks": 430,
      "gi": 431,
      "sw": 432,
      "land": 433,
      "fe": 434,
      "##ep": 435,
      "ang": 436,
      "mo": 437,
      "tri": 438,
      "wind": 439,
      "sitting": 440,
      "smiles": 441,
      "gl": 442,
      "li": 443,
      "what": 444,
      "ad": 445,
      "can": 446,
      "flow": 447,
      "sta": 448,
      "cookies": 449,
      "##po": 450,
      "lea": 451,
      "off": 452,
      "some": 453,
      "box": 454,
      "call": 455,
      "##gon": 456,
      "show": 457,
      "mag": 458,
      "##sed": 459,
      "dragon": 460,
      "clock": 461,
      "turns": 462,
      "whe": 463,
      "le": 464,
      "everyone": 465,
      "gets": 466,
      "pre": 467,
      "was": 468,
      "sled": 469,
      "fly": 470,
      "##ppy": 471,
      "sto": 472,
      "##ach": 473,
      "##ile": 474,
      "fishing": 475,
      "##hip": 476,
      "magic": 477,
      "##aces": 478,
      "eyes": 479,
      "tell": 480,
      "happy": 481,
      "joy": 482,
      "##ching": 483,
      "mon": 484,
      "put": 485,
      "sea": 486,
      "##ome": 487,
      "##iding": 488,
      "window": 489,
      "jum": 490,
      "sle": 491,
      "green": 492,
      "smiling": 493,
      "##ask": 494,
      "##mp": 495,
      "##ter": 496,
      "##joy": 497,
      "enjoy": 498,
      "wooden": 499,
      "dark": 500,
      "surprise": 501,
      "feel": 502,
      "chat": 503,
      "happ": 504,
      "flying": 505,
      "big": 506,
      "##ff": 507,
      "rob": 508,
      "##ru": 509,
      "robot": 510,
      "right": 511,
      "##les": 512,
      "saying": 513,
      "##ating": 514,
      "##ster": 515,
      "roo": 516,
      "un": 517,
      "shark": 518,
      "outside": 519,
      "##ates": 520,
      "##dd": 521,
      "##ides": 522,
      "che": 523,
      "##mb": 524,
      "##sing": 525,
      "smile": 526,
      "bes": 527,
      "under": 528,
      "over": 529,
      "beside": 530,
      "disco": 531,
      "toward": 532,
      "##ound": 533,
      "##fully": 534,
      "hill": 535,
      "wo": 536,
      "##row": 537,
      "##ice": 538,
      "fa": 539,
      "fish": 540,
      "tw": 541,
      "each": 542,
      "yell": 543,
      "angry": 544,
      "bre": 545,
      "pa": 546,
      "##ated": 547,
      "left": 548,
      "##ment": 549,
      "##app": 550,
      "get": 551,
      "##ist": 552,
      "dri": 553,
      "##ick": 554,
      "pir": 555,
      "plan": 556,
      "##ould": 557,
      "air": 558,
      "pirate": 559,
      "bask": 560,
      "aft": 561,
      "after": 562,
      "home": 563,
      "##use": 564,
      "cha": 565,
      "excited": 566,
      "walking": 567,
      "yellow": 568,
      "point": 569,
      "##nts": 570,
      "arms": 571,
      "tries": 572,
      "##ip": 573,
      "wear": 574,
      "hear": 575,
      "takes": 576,
      "ju": 577,
      "sugg": 578,
      "find": 579,
      "read": 580,
      "then": 581,
      "one": 582,
      "##ises": 583,
      "##nge": 584,
      "have": 585,
      "##ains": 586,
      "ra": 587,
      "##ds": 588,
      "##iz": 589,
      "beca": 590,
      "##key": 591,
      "monkey": 592,
      "comes": 593,
      "basket": 594,
      "room": 595,
      "running": 596,
      "tells": 597,
      "##ily": 598,
      "appro": 599,
      "##lf": 600,
      "##ount": 601,
      "lau": 602,
      "expl": 603,
      "boat": 604,
      "opens": 605,
      "mis": 606,
      "del": 607,
      "##igh": 608,
      "##orm": 609,
      "because": 610,
      "##ive": 611,
      "att": 612,
      "bu": 613,
      "ice": 614,
      "black": 615,
      "br": 616,
      "doll": 617,
      "snowed": 618,
      "##so": 619,
      "lo": 620,
      "fix": 621,
      "##per": 622,
      "am": 623,
      "##zy": 624,
      "again": 625,
      "gaz": 626,
      "pic": 627,
      "two": 628,
      "new": 629,
      "##ures": 630,
      "##ests": 631,
      "##vent": 632,
      "qu": 633,
      "floor": 634,
      "also": 635,
      "disapp": 636,
      "##rying": 637,
      "##ant": 638,
      "flowers": 639,
      "road": 640,
      "near": 641,
      "##pl": 642,
      "tree": 643,
      "##rill": 644,
      "walks": 645,
      "happily": 646,
      "tea": 647,
      "convers": 648,
      "thin": 649,
      "##led": 650,
      "sear": 651,
      "surround": 652,
      "like": 653,
      "##cks": 654,
      "##xt": 655,
      "##ground": 656,
      "##mer": 657,
      "conversation": 658,
      "who": 659,
      "##ery": 660,
      "##anc": 661,
      "pu": 662,
      "next": 663,
      "pigs": 664,
      "##ree": 665,
      "stands": 666,
      "##cape": 667,
      "pie": 668,
      "##ance": 669,
      "if": 670,
      "discovers": 671,
      "hel": 672,
      "##ime": 673,
      "wall": 674,
      "wearing": 675,
      "friend": 676,
      "conf": 677,
      "##dden": 678,
      "pip": 679,
      "pipi": 680,
      "will": 681,
      "##ret": 682,
      "pur": 683,
      "sudden": 684,
      "##ge": 685,
      "sad": 686,
      "sun": 687,
      "emb": 688,
      "sing": 689,
      "##nta": 690,
      "##ink": 691,
      "##ple": 692,
      "now": 693,
      "sees": 694,
      "lands": 695,
      "##cc": 696,
      "worri": 697,
      "side": 698,
      "##rat": 699,
      "got": 700,
      "light": 701,
      "small": 702,
      "int": 703,
      "going": 704,
      "cou": 705,
      "##hed": 706,
      "santa": 707,
      "cozy": 708,
      "soar": 709,
      "##ken": 710,
      "fin": 711,
      "id": 712,
      "good": 713,
      "approac": 714,
      "finds": 715,
      "cont": 716,
      "hu": 717,
      "waves": 718,
      "mad": 719,
      "##oint": 720,
      "jo": 721,
      "popo": 722,
      "disappoint": 723,
      "fall": 724,
      "##bs": 725,
      "##ball": 726,
      "laugh": 727,
      "jump": 728,
      "tra": 729,
      "##fa": 730,
      "super": 731,
      "war": 732,
      "spaces": 733,
      "puts": 734,
      "inside": 735,
      "flo": 736,
      "hat": 737,
      "points": 738,
      "pat": 739,
      "frog": 740,
      "suddenly": 741,
      "spaceship": 742,
      "idea": 743,
      "playground": 744,
      "##ins": 745,
      "##ras": 746,
      "##age": 747,
      "bread": 748,
      "expres": 749,
      "advent": 750,
      "butter": 751,
      "##isten": 752,
      "glas": 753,
      "butterf": 754,
      "bro": 755,
      "##nders": 756,
      "dec": 757,
      "which": 758,
      "very": 759,
      "##os": 760,
      "starts": 761,
      "me": 762,
      "tr": 763,
      "shows": 764,
      "surrounded": 765,
      "landscape": 766,
      "reading": 767,
      "help": 768,
      "##rea": 769,
      "shares": 770,
      "attent": 771,
      "share": 772,
      "should": 773,
      "##ction": 774,
      "couch": 775,
      "mount": 776,
      "##ee": 777,
      "##idd": 778,
      "purple": 779,
      "spot": 780,
      "##ling": 781,
      "bot": 782,
      "calls": 783,
      "my": 784,
      "##ally": 785,
      "snowm": 786,
      "does": 787,
      "sofa": 788,
      "pro": 789,
      "come": 790,
      "listen": 791,
      "##pt": 792,
      "blo": 793,
      "playing": 794,
      "suggests": 795,
      "bea": 796,
      "##ush": 797,
      "clean": 798,
      "start": 799,
      "raises": 800,
      "##qu": 801,
      "watches": 802,
      "##icious": 803,
      "watch": 804,
      "flower": 805,
      "arri": 806,
      "##ns": 807,
      "eye": 808,
      "water": 809,
      "cave": 810,
      "##estion": 811,
      "runs": 812,
      "how": 813,
      "##bb": 814,
      "towards": 815,
      "enjoys": 816,
      "worried": 817,
      "where": 818,
      "than": 819,
      "seated": 820,
      "broken": 821,
      "night": 822,
      "coming": 823,
      "adventure": 824,
      "##sion": 825,
      "gorill": 826,
      "gorilla": 827,
      "##min": 828,
      "eng": 829,
      "really": 830,
      "myster": 831,
      "per": 832,
      "##rew": 833,
      "kn": 834,
      "bet": 835,
      "sleep": 836,
      "wonder": 837,
      "she": 838,
      "##hine": 839,
      "##ore": 840,
      "##ite": 841,
      "paint": 842,
      "mom": 843,
      "moment": 844,
      "catch": 845,
      "rel": 846,
      "##pa": 847,
      "cookie": 848,
      "gift": 849,
      "chas": 850,
      "this": 851,
      "##ved": 852,
      "res": 853,
      "spea": 854,
      "pict": 855,
      "delicious": 856,
      "team": 857,
      "jumps": 858,
      "just": 859,
      "explo": 860,
      "##its": 861,
      "we": 862,
      "mysterious": 863,
      "hiding": 864,
      "make": 865,
      "take": 866,
      "disappointed": 867,
      "snowman": 868,
      "feeling": 869,
      "##tle": 870,
      "floating": 871,
      "##ny": 872,
      "##aw": 873,
      "waving": 874,
      "ans": 875,
      "ship": 876,
      "adm": 877,
      "answ": 878,
      "##iff": 879,
      "par": 880,
      "clou": 881,
      "eag": 882,
      "rod": 883,
      "##rist": 884,
      "eager": 885,
      "##range": 886,
      "plane": 887,
      "singing": 888,
      "mac": 889,
      "machine": 890,
      "time": 891,
      "##ine": 892,
      "scrat": 893,
      "said": 894,
      "chair": 895,
      "##ul": 896,
      "##ss": 897,
      "being": 898,
      "fun": 899,
      "##ire": 900,
      "##oon": 901,
      "riding": 902,
      "mout": 903,
      "fie": 904,
      "mouth": 905,
      "its": 906,
      "##roud": 907,
      "boo": 908,
      "##lls": 909,
      "story": 910,
      "field": 911,
      "prepa": 912,
      "embar": 913,
      "joyful": 914,
      "greet": 915,
      "jumping": 916,
      "gr": 917,
      "proud": 918,
      "snowball": 919,
      "arm": 920,
      "hell": 921,
      "##ushes": 922,
      "hello": 923,
      "##een": 924,
      "##bo": 925,
      "draw": 926,
      "##fe": 927,
      "man": 928,
      "embarras": 929,
      "##self": 930,
      "stick": 931,
      "##ement": 932,
      "ent": 933,
      "vis": 934,
      "glasses": 935,
      "flies": 936,
      "##llow": 937,
      "##ween": 938,
      "between": 939,
      "sou": 940,
      "dish": 941,
      "makes": 942,
      "##head": 943,
      "##ise": 944,
      "danc": 945,
      "pas": 946,
      "##ls": 947,
      "##ha": 948,
      "eagerly": 949,
      "##ness": 950,
      "##ming": 951,
      "follow": 952,
      "greets": 953,
      "excitement": 954,
      "wants": 955,
      "came": 956,
      "feels": 957,
      "both": 958,
      "na": 959,
      "##long": 960,
      "swing": 961,
      "##ove": 962,
      "##ying": 963,
      "apo": 964,
      "apolo": 965,
      "wand": 966,
      "shakes": 967,
      "sand": 968,
      "tou": 969,
      "explains": 970,
      "##ase": 971,
      "##rin": 972,
      "ask": 973,
      "##land": 974,
      "made": 975,
      "blocks": 976,
      "friendly": 977,
      "gives": 978,
      "apolog": 979,
      "goes": 980,
      "excitedly": 981,
      "##ces": 982,
      "sec": 983,
      "seems": 984,
      "soars": 985,
      "attention": 986,
      "##com": 987,
      "##wic": 988,
      "##irs": 989,
      "approaches": 990,
      "know": 991,
      "sandwic": 992,
      "books": 993,
      "midd": 994,
      "someone": 995,
      "middle": 996,
      "lamp": 997,
      "gazes": 998,
      "din": 999,
      "thou": 1000,
      "wint": 1001,
      "ste": 1002,
      "shar": 1003,
      "ready": 1004,
      "prese": 1005,
      "snowing": 1006,
      "patch": 1007,
      "##cus": 1008,
      "##lor": 1009,
      "##izes": 1010,
      "day": 1011,
      "doesn": 1012,
      "still": 1013,
      "searches": 1014,
      "##th": 1015,
      "told": 1016,
      "##form": 1017,
      "color": 1018,
      "question": 1019,
      "##for": 1020,
      "cla": 1021,
      "bear": 1022,
      "##ident": 1023,
      "having": 1024,
      "thinks": 1025,
      "gra": 1026,
      "cake": 1027,
      "drin": 1028,
      "bat": 1029,
      "##mas": 1030,
      "christ": 1031,
      "christmas": 1032,
      "det": 1033,
      "##az": 1034,
      "place": 1035,
      "surprises": 1036,
      "soup": 1037,
      "lit": 1038,
      "##ges": 1039,
      "##hered": 1040,
      "cau": 1041,
      "agree": 1042,
      "butterfly": 1043,
      "space": 1044,
      "swim": 1045,
      "caught": 1046,
      "skill": 1047,
      "wonders": 1048,
      "asking": 1049,
      "wakes": 1050,
      "thought": 1051,
      "plate": 1052,
      "winter": 1053,
      "##ied": 1054,
      "goal": 1055,
      "bra": 1056,
      "way": 1057,
      "##ermin": 1058,
      "song": 1059,
      "sal": 1060,
      "proudly": 1061,
      "determin": 1062,
      "along": 1063,
      "leaving": 1064,
      "vo": 1065,
      "##te": 1066,
      "moving": 1067,
      "stret": 1068,
      "gang": 1069,
      "sleigh": 1070,
      "im": 1071,
      "race": 1072,
      "found": 1073,
      "cliff": 1074,
      "ac": 1075,
      "gu": 1076,
      "ret": 1077,
      "chats": 1078,
      "care": 1079,
      "watching": 1080,
      "farew": 1081,
      "sleeping": 1082,
      "farewell": 1083,
      "eat": 1084,
      "lead": 1085,
      "picture": 1086,
      "dancing": 1087,
      "did": 1088,
      "row": 1089,
      "heads": 1090,
      "sor": 1091,
      "mountains": 1092,
      "##bble": 1093,
      "##lds": 1094,
      "magical": 1095,
      "embarrassed": 1096,
      "spe": 1097,
      "playful": 1098,
      "lake": 1099,
      "socc": 1100,
      "soccer": 1101,
      "pot": 1102,
      "shoulder": 1103,
      "little": 1104,
      "##ened": 1105,
      "join": 1106,
      "ear": 1107,
      "trying": 1108,
      "##cha": 1109,
      "gaze": 1110,
      "##ires": 1111,
      "above": 1112,
      "sound": 1113,
      "##ently": 1114,
      "why": 1115,
      "himself": 1116,
      "##ives": 1117,
      "wait": 1118,
      "closes": 1119,
      "train": 1120,
      "high": 1121,
      "vill": 1122,
      "froz": 1123,
      "conc": 1124,
      "fu": 1125,
      "when": 1126,
      "##rees": 1127,
      "excha": 1128,
      "cheer": 1129,
      "pony": 1130,
      "##idst": 1131,
      "nose": 1132,
      "frozen": 1133,
      "##iv": 1134,
      "##ity": 1135,
      "gathered": 1136,
      "game": 1137,
      "amaz": 1138,
      "gest": 1139,
      "any": 1140,
      "mu": 1141,
      "pink": 1142,
      "secret": 1143,
      "hide": 1144,
      "making": 1145,
      "leaves": 1146,
      "finis": 1147,
      "##ens": 1148,
      "##ton": 1149,
      "visit": 1150,
      "sorry": 1151,
      "fru": 1152,
      "##ans": 1153,
      "##lling": 1154,
      "sits": 1155,
      "stairs": 1156,
      "stops": 1157,
      "capt": 1158,
      "cre": 1159,
      "lying": 1160,
      "sho": 1161,
      "##ears": 1162,
      "party": 1163,
      "more": 1164,
      "name": 1165,
      "swings": 1166,
      "explain": 1167,
      "##umb": 1168,
      "ride": 1169,
      "##hie": 1170,
      "apple": 1171,
      "stop": 1172,
      "meet": 1173,
      "prin": 1174,
      "woods": 1175,
      "##ect": 1176,
      "##br": 1177,
      "##act": 1178,
      "rece": 1179,
      "chasing": 1180,
      "##set": 1181,
      "scratches": 1182,
      "##fore": 1183,
      "awa": 1184,
      "nods": 1185,
      "enjoying": 1186,
      "brings": 1187,
      "too": 1188,
      "walk": 1189,
      "bri": 1190,
      "##aur": 1191,
      "strong": 1192,
      "##osaur": 1193,
      "dinosaur": 1194,
      "food": 1195,
      "##read": 1196,
      "##isf": 1197,
      "##atisf": 1198,
      "sca": 1199,
      "thanks": 1200,
      "answers": 1201,
      "ru": 1202,
      "expression": 1203,
      "prepares": 1204,
      "hard": 1205,
      "discus": 1206,
      "compl": 1207,
      "rem": 1208,
      "piece": 1209,
      "hides": 1210,
      "or": 1211,
      "##ously": 1212,
      "body": 1213,
      "playfully": 1214,
      "doing": 1215,
      "amidst": 1216,
      "##ering": 1217,
      "##comes": 1218,
      "agrees": 1219,
      "getting": 1220,
      "##ele": 1221,
      "bir": 1222,
      "bag": 1223,
      "well": 1224,
      "##ene": 1225,
      "startled": 1226,
      "fir": 1227,
      "speaks": 1228,
      "##ser": 1229,
      "close": 1230,
      "gathers": 1231,
      "sandwich": 1232,
      "##cess": 1233,
      "return": 1234,
      "round": 1235,
      "laughs": 1236,
      "relie": 1237,
      "pe": 1238,
      "##ays": 1239,
      "##ned": 1240,
      "##zz": 1241,
      "forward": 1242,
      "voice": 1243,
      "wel": 1244,
      "wonderland": 1245,
      "were": 1246,
      "##emp": 1247,
      "princess": 1248,
      "##ane": 1249,
      "closer": 1250,
      "puzz": 1251,
      "##ank": 1252,
      "##other": 1253,
      "enc": 1254,
      "##ak": 1255,
      "##room": 1256,
      "strange": 1257,
      "confident": 1258,
      "spread": 1259,
      "monster": 1260,
      "airpl": 1261,
      "airplane": 1262,
      "catches": 1263,
      "mas": 1264,
      "rushes": 1265,
      "shaking": 1266,
      "showing": 1267,
      "lost": 1268,
      "hur": 1269,
      "ke": 1270,
      "moves": 1271,
      "bubble": 1272,
      "finally": 1273,
      "##la": 1274,
      "another": 1275,
      "laughing": 1276,
      "##our": 1277,
      "##storm": 1278,
      "##ressed": 1279,
      "##lies": 1280,
      "calling": 1281,
      "first": 1282,
      "old": 1283,
      "fill": 1284,
      "trans": 1285,
      "cele": 1286,
      "##ross": 1287,
      "set": 1288,
      "contin": 1289,
      "joins": 1290,
      "concer": 1291,
      "try": 1292,
      "gathering": 1293,
      "move": 1294,
      "##chie": 1295,
      "##mmer": 1296,
      "slee": 1297,
      "mischie": 1298,
      "celebr": 1299,
      "ok": 1300,
      "seesaw": 1301,
      "skills": 1302,
      "villain": 1303,
      "sets": 1304,
      "##ched": 1305,
      "##ast": 1306,
      "wave": 1307,
      "throw": 1308,
      "##pped": 1309,
      "ali": 1310,
      "determined": 1311,
      "keep": 1312,
      "potion": 1313,
      "falls": 1314,
      "##ud": 1315,
      "before": 1316,
      "deep": 1317,
      "steps": 1318,
      "grou": 1319,
      "alone": 1320,
      "exchange": 1321,
      "group": 1322,
      "satisf": 1323,
      "explore": 1324,
      "colorful": 1325,
      "would": 1326,
      "three": 1327,
      "stretches": 1328,
      "drea": 1329,
      "##time": 1330,
      "rev": 1331,
      "give": 1332,
      "leads": 1333,
      "ple": 1334,
      "mea": 1335,
      "mess": 1336,
      "others": 1337,
      "putting": 1338,
      "butterflies": 1339,
      "anger": 1340,
      "juice": 1341,
      "confro": 1342,
      "goodby": 1343,
      "kit": 1344,
      "camer": 1345,
      "bird": 1346,
      "camera": 1347,
      "bow": 1348,
      "des": 1349,
      "##ci": 1350,
      "paw": 1351,
      "arrives": 1352,
      "gray": 1353,
      "bit": 1354,
      "##wn": 1355,
      "delight": 1356,
      "goodbye": 1357,
      "inv": 1358,
      "pole": 1359,
      "stru": 1360,
      "cleaning": 1361,
      "admires": 1362,
      "##board": 1363,
      "scared": 1364,
      "hea": 1365,
      "you": 1366,
      "missing": 1367,
      "clouds": 1368,
      "puzzled": 1369,
      "here": 1370,
      "approaching": 1371,
      "receives": 1372,
      "bad": 1373,
      "many": 1374,
      "ph": 1375,
      "stro": 1376,
      "continu": 1377,
      "##ring": 1378,
      "##ids": 1379,
      "want": 1380,
      "requ": 1381,
      "shock": 1382,
      "wings": 1383,
      "painting": 1384,
      "filled": 1385,
      "dire": 1386,
      "hi": 1387,
      "top": 1388,
      "warns": 1389,
      "es": 1390,
      "stri": 1391,
      "##eeps": 1392,
      "imp": 1393,
      "explores": 1394,
      "imag": 1395,
      "##iful": 1396,
      "stu": 1397,
      "comfor": 1398,
      "##uses": 1399,
      "revea": 1400,
      "##str": 1401,
      "pointing": 1402,
      "mountain": 1403,
      "using": 1404,
      "ponders": 1405,
      "##acing": 1406,
      "real": 1407,
      "keeps": 1408,
      "confu": 1409,
      "line": 1410,
      "shi": 1411,
      "##che": 1412,
      "bright": 1413,
      "warm": 1414,
      "##cts": 1415,
      "shout": 1416,
      "okay": 1417,
      "##du": 1418,
      "rides": 1419,
      "chatting": 1420,
      "bring": 1421,
      "low": 1422,
      "orange": 1423,
      "##fts": 1424,
      "##uring": 1425,
      "long": 1426,
      "beaut": 1427,
      "pee": 1428,
      "cup": 1429,
      "amazed": 1430,
      "snowstorm": 1431,
      "##iment": 1432,
      "scene": 1433,
      "checks": 1434,
      "strugg": 1435,
      "imagin": 1436,
      "beautiful": 1437,
      "beg": 1438,
      "kitche": 1439,
      "kitchen": 1440,
      "coo": 1441,
      "fle": 1442,
      "pal": 1443,
      "blin": 1444,
      "called": 1445,
      "nearby": 1446,
      "went": 1447,
      "##here": 1448,
      "surprising": 1449,
      "forehead": 1450,
      "words": 1451,
      "telling": 1452,
      "touches": 1453,
      "##ph": 1454,
      "rock": 1455,
      "searching": 1456,
      "acc": 1457,
      "##day": 1458,
      "tast": 1459,
      "##rown": 1460,
      "apologizes": 1461,
      "sharks": 1462,
      "pea": 1463,
      "##ever": 1464,
      "##sts": 1465,
      "belly": 1466,
      "fox": 1467,
      "however": 1468,
      "satisfied": 1469,
      "gun": 1470,
      "##icks": 1471,
      "fixing": 1472,
      "obs": 1473,
      "seeks": 1474,
      "heav": 1475,
      "obser": 1476,
      "das": 1477,
      "##not": 1478,
      "inter": 1479,
      "picks": 1480,
      "mush": 1481,
      "##ost": 1482,
      "##uation": 1483,
      "situation": 1484,
      "monkeys": 1485,
      "aliens": 1486,
      "direction": 1487,
      "mushroom": 1488,
      "faces": 1489,
      "leave": 1490,
      "##ively": 1491,
      "tru": 1492,
      "##ild": 1493,
      "blank": 1494,
      "curios": 1495,
      "carefully": 1496,
      "curiosity": 1497,
      "##vous": 1498,
      "##rodu": 1499,
      "##pping": 1500,
      "introdu": 1501,
      "invit": 1502,
      "brown": 1503,
      "fing": 1504,
      "##come": 1505,
      "##ros": 1506,
      "curiously": 1507,
      "falling": 1508,
      "expresses": 1509,
      "masks": 1510,
      "thinking": 1511,
      "mor": 1512,
      "##thing": 1513,
      "cannot": 1514,
      "whether": 1515,
      "morning": 1516,
      "let": 1517,
      "##less": 1518,
      "##where": 1519,
      "##ven": 1520,
      "slide": 1521,
      "listens": 1522,
      "listening": 1523,
      "rope": 1524,
      "resc": 1525,
      "ser": 1526,
      "##ries": 1527,
      "decides": 1528,
      "across": 1529,
      "##ren": 1530,
      "dev": 1531,
      "feet": 1532,
      "driver": 1533,
      "ti": 1534,
      "##mon": 1535,
      "fast": 1536,
      "against": 1537,
      "confronts": 1538,
      "##ish": 1539,
      "opened": 1540,
      "dou": 1541,
      "gig": 1542,
      "stre": 1543,
      "##alls": 1544,
      "gestures": 1545,
      "kick": 1546,
      "##lla": 1547,
      "clim": 1548,
      "work": 1549,
      "happened": 1550,
      "frustr": 1551,
      "act": 1552,
      "##wer": 1553,
      "##ats": 1554,
      "##ils": 1555,
      "spots": 1556,
      "dance": 1557,
      "##arge": 1558,
      "plays": 1559,
      "transform": 1560,
      "stage": 1561,
      "speaking": 1562,
      "asked": 1563,
      "drink": 1564,
      "same": 1565,
      "engine": 1566,
      "peace": 1567,
      "ahead": 1568,
      "hit": 1569,
      "##owing": 1570,
      "##ghter": 1571,
      "##ress": 1572,
      "laughter": 1573,
      "##ances": 1574,
      "sleepy": 1575,
      "da": 1576,
      "lot": 1577,
      "##iously": 1578,
      "##apping": 1579,
      "think": 1580,
      "shelf": 1581,
      "setting": 1582,
      "##rossed": 1583,
      "refu": 1584,
      "suggestion": 1585,
      "ic": 1586,
      "##pect": 1587,
      "rais": 1588,
      "full": 1589,
      "relieved": 1590,
      "hammer": 1591,
      "chases": 1592,
      "present": 1593,
      "speed": 1594,
      "confidently": 1595,
      "blanket": 1596,
      "cr": 1597,
      "moon": 1598,
      "rink": 1599,
      "vent": 1600,
      "##bin": 1601,
      "cabin": 1602,
      "swimming": 1603,
      "mar": 1604,
      "##gs": 1605,
      "chase": 1606,
      "glass": 1607,
      "##vor": 1608,
      "ref": 1609,
      "button": 1610,
      "wears": 1611,
      "trail": 1612,
      "mischievous": 1613,
      "av": 1614,
      "##ex": 1615,
      "had": 1616,
      "##ino": 1617,
      "carrying": 1618,
      "forg": 1619,
      "##ushing": 1620,
      "##bbles": 1621,
      "explaining": 1622,
      "pulls": 1623,
      "embr": 1624,
      "hung": 1625,
      "pra": 1626,
      "##ped": 1627,
      "skates": 1628,
      "bye": 1629,
      "comp": 1630,
      "need": 1631,
      "hears": 1632,
      "sharing": 1633,
      "clapping": 1634,
      "roof": 1635,
      "engineer": 1636,
      "sco": 1637,
      "icy": 1638,
      "nodd": 1639,
      "encount": 1640,
      "begins": 1641,
      "##nges": 1642,
      "discover": 1643,
      "pan": 1644,
      "##oot": 1645,
      "news": 1646,
      "hidd": 1647,
      "heard": 1648,
      "brave": 1649,
      "hidden": 1650,
      "cand": 1651,
      "pers": 1652,
      "##light": 1653,
      "nod": 1654,
      "break": 1655,
      "##ere": 1656,
      "becomes": 1657,
      "overalls": 1658,
      "engrossed": 1659,
      "cloudy": 1660,
      "confused": 1661,
      "stay": 1662,
      "taking": 1663,
      "joyously": 1664,
      "compliment": 1665,
      "ant": 1666,
      "aim": 1667,
      "inqu": 1668,
      "closed": 1669,
      "dep": 1670,
      "##ffl": 1671,
      "pictures": 1672,
      "muffl": 1673,
      "things": 1674,
      "buck": 1675,
      "vir": 1676,
      "dist": 1677,
      "sunset": 1678,
      "prom": 1679,
      "dro": 1680,
      "##ices": 1681,
      "whis": 1682,
      "stares": 1683,
      "darkness": 1684,
      "drawing": 1685,
      "request": 1686,
      "truck": 1687,
      "emp": 1688,
      "emer": 1689,
      "##gu": 1690,
      "anim": 1691,
      "unex": 1692,
      "peeks": 1693,
      "##pected": 1694,
      "unexpected": 1695,
      "wrong": 1696,
      "##nging": 1697,
      "sol": 1698,
      "enter": 1699,
      "wide": 1700,
      "bel": 1701,
      "somewhere": 1702,
      "pret": 1703,
      "pr": 1704,
      "##ered": 1705,
      "##book": 1706,
      "shad": 1707,
      "cover": 1708,
      "turning": 1709,
      "qui": 1710,
      "huge": 1711,
      "scratching": 1712,
      "doub": 1713,
      "saw": 1714,
      "search": 1715,
      "block": 1716,
      "best": 1717,
      "rest": 1718,
      "sail": 1719,
      "appears": 1720,
      "offers": 1721,
      "heavy": 1722,
      "##gn": 1723,
      "##ath": 1724,
      "base": 1725,
      "fea": 1726,
      "snea": 1727,
      "string": 1728,
      "##cept": 1729,
      "handle": 1730,
      "wheel": 1731,
      "##antic": 1732,
      "gigantic": 1733,
      "feast": 1734,
      "aston": 1735,
      "glances": 1736,
      "speci": 1737,
      "dream": 1738,
      "today": 1739,
      "bran": 1740,
      "worries": 1741,
      "bucket": 1742,
      "eating": 1743,
      "fear": 1744,
      "pin": 1745,
      "##eet": 1746,
      "talk": 1747,
      "catching": 1748,
      "build": 1749,
      "waiting": 1750,
      "fra": 1751,
      "snowboard": 1752,
      "joyfully": 1753,
      "follows": 1754,
      "shocked": 1755,
      "##ute": 1756,
      "fight": 1757,
      "##using": 1758,
      "intently": 1759,
      "presents": 1760,
      "quiet": 1761,
      "fills": 1762,
      "underst": 1763,
      "quick": 1764,
      "concerned": 1765,
      "lowers": 1766,
      "bids": 1767,
      "##ust": 1768,
      "sliding": 1769,
      "scri": 1770,
      "attentively": 1771,
      "invites": 1772,
      "frying": 1773,
      "tin": 1774,
      "##ax": 1775,
      "##nding": 1776,
      "hole": 1777,
      "large": 1778,
      "##ner": 1779,
      "board": 1780,
      "glides": 1781,
      "taste": 1782,
      "nodding": 1783,
      "pretty": 1784,
      "ba": 1785,
      "##ong": 1786,
      "##ger": 1787,
      "##pes": 1788,
      "inc": 1789,
      "uni": 1790,
      "among": 1791,
      "grabs": 1792,
      "own": 1793,
      "##amin": 1794,
      "examin": 1795,
      "causing": 1796,
      "succ": 1797,
      "viruses": 1798,
      "shadow": 1799,
      "##ike": 1800,
      "##acks": 1801,
      "ski": 1802,
      "leaf": 1803,
      "approach": 1804,
      "seren": 1805,
      "scar": 1806,
      "##cope": 1807,
      "claus": 1808,
      "races": 1809,
      "trou": 1810,
      "win": 1811,
      "only": 1812,
      "##ical": 1813,
      "sleds": 1814,
      "grow": 1815,
      "yes": 1816,
      "##ding": 1817,
      "##ze": 1818,
      "beha": 1819,
      "displ": 1820,
      "##ize": 1821,
      "empty": 1822,
      "bal": 1823,
      "fell": 1824,
      "##ngu": 1825,
      "##ightly": 1826,
      "admire": 1827,
      "pengu": 1828,
      "spreads": 1829,
      "finger": 1830,
      "shin": 1831,
      "ass": 1832,
      "tail": 1833,
      "awe": 1834,
      "demon": 1835,
      "hoo": 1836,
      "mer": 1837,
      "playtime": 1838,
      "soaring": 1839,
      "arrived": 1840,
      "answer": 1841,
      "part": 1842,
      "agreement": 1843,
      "rescue": 1844,
      "encounter": 1845,
      "candy": 1846,
      "bite": 1847,
      "mir": 1848,
      "##ters": 1849,
      "##ror": 1850,
      "wake": 1851,
      "skating": 1852,
      "upset": 1853,
      "treas": 1854,
      "heart": 1855,
      "basketball": 1856,
      "wondering": 1857,
      "stroll": 1858,
      "climb": 1859,
      "activ": 1860,
      "sin": 1861,
      "til": 1862,
      "##ap": 1863,
      "##ale": 1864,
      "##ons": 1865,
      "rolling": 1866,
      "spell": 1867,
      "##ages": 1868,
      "whale": 1869,
      "fruit": 1870,
      "marve": 1871,
      "could": 1872,
      "dom": 1873,
      "yaw": 1874,
      "comm": 1875,
      "reveals": 1876,
      "##pts": 1877,
      "shoo": 1878,
      "##ade": 1879,
      "##bbing": 1880,
      "prepare": 1881,
      "##umbles": 1882,
      "introduces": 1883,
      "bike": 1884,
      "##ening": 1885,
      "##ution": 1886,
      "reun": 1887,
      "turned": 1888,
      "leaps": 1889,
      "contro": 1890,
      "##ude": 1891,
      "dashes": 1892,
      "action": 1893,
      "lies": 1894,
      "post": 1895,
      "snowf": 1896,
      "reaches": 1897,
      "suggest": 1898,
      "passing": 1899,
      "welcomes": 1900,
      "bowl": 1901,
      "escape": 1902,
      "struggles": 1903,
      "four": 1904,
      "foot": 1905,
      "##elt": 1906,
      "salt": 1907,
      "success": 1908,
      "vi": 1909,
      "pose": 1910,
      "##ities": 1911,
      "##itude": 1912,
      "##leep": 1913,
      "##ort": 1914,
      "asleep": 1915,
      "sket": 1916,
      "art": 1917,
      "background": 1918,
      "map": 1919,
      "relax": 1920,
      "ind": 1921,
      "invent": 1922,
      "stone": 1923,
      "disappointment": 1924,
      "bookshe": 1925,
      "shining": 1926,
      "antic": 1927,
      "merry": 1928,
      "domino": 1929,
      "eff": 1930,
      "hits": 1931,
      "link": 1932,
      "thing": 1933,
      "##chbook": 1934,
      "white": 1935,
      "balloon": 1936,
      "word": 1937,
      "mirror": 1938,
      "sketchbook": 1939,
      "linked": 1940,
      "##nce": 1941,
      "##able": 1942,
      "##iant": 1943,
      "##med": 1944,
      "##most": 1945,
      "almost": 1946,
      "opening": 1947,
      "##ult": 1948,
      "gate": 1949,
      "sig": 1950,
      "##oke": 1951,
      "##vi": 1952,
      "##ping": 1953,
      "stea": 1954,
      "master": 1955,
      "plans": 1956,
      "meets": 1957,
      "salty": 1958,
      "much": 1959,
      "captiv": 1960,
      "discuss": 1961,
      "ord": 1962,
      "frustration": 1963,
      "refuses": 1964,
      "avo": 1965,
      "muffler": 1966,
      "special": 1967,
      "branch": 1968,
      "##oto": 1969,
      "##iness": 1970,
      "fogg": 1971,
      "drives": 1972,
      "ears": 1973,
      "finishes": 1974,
      "photo": 1975,
      "cooking": 1976,
      "foggy": 1977,
      "##be": 1978,
      "power": 1979,
      "colo": 1980,
      "discovery": 1981,
      "reads": 1982,
      "weat": 1983,
      "questions": 1984,
      "comfort": 1985,
      "realizes": 1986,
      "raising": 1987,
      "colored": 1988,
      "diz": 1989,
      "mic": 1990,
      "tel": 1991,
      "##val": 1992,
      "##escope": 1993,
      "fright": 1994,
      "##ided": 1995,
      "##ense": 1996,
      "nothing": 1997,
      "brush": 1998,
      "tired": 1999,
      "telescope": 2000,
      "dressed": 2001,
      "ob": 2002,
      "##tig": 2003,
      "##ished": 2004,
      "inst": 2005,
      "inves": 2006,
      "hair": 2007,
      "##rous": 2008,
      "flight": 2009,
      "##ately": 2010,
      "bigger": 2011,
      "investig": 2012,
      "##ject": 2013,
      "##ron": 2014,
      "fishes": 2015,
      "alrea": 2016,
      "hearing": 2017,
      "passes": 2018,
      "returns": 2019,
      "blinking": 2020,
      "emerges": 2021,
      "bookshelf": 2022,
      "already": 2023,
      "chi": 2024,
      "opp": 2025,
      "vase": 2026,
      "##ave": 2027,
      "thrill": 2028,
      "cho": 2029,
      "giant": 2030,
      "ease": 2031,
      "##ne": 2032,
      "##uck": 2033,
      "heading": 2034,
      "favor": 2035,
      "drinks": 2036,
      "thoughts": 2037,
      "treasure": 2038,
      "oc": 2039,
      "without": 2040,
      "##ades": 2041,
      "last": 2042,
      "great": 2043,
      "grat": 2044,
      "##orrow": 2045,
      "##resh": 2046,
      "shaped": 2047,
      "perches": 2048,
      "sandwiches": 2049,
      "anything": 2050,
      "scolds": 2051,
      "gratitude": 2052,
      "end": 2053,
      "zoo": 2054,
      "##oring": 2055,
      "looked": 2056,
      "exciting": 2057,
      "prete": 2058,
      "thank": 2059,
      "belie": 2060,
      "quickly": 2061,
      "weather": 2062,
      "hes": 2063,
      "##oura": 2064,
      "##ider": 2065,
      "fire": 2066,
      "check": 2067,
      "welcome": 2068,
      "celebrate": 2069,
      "hesit": 2070,
      "bur": 2071,
      "cor": 2072,
      "##su": 2073,
      "##son": 2074,
      "##nged": 2075,
      "##ean": 2076,
      "hops": 2077,
      "safe": 2078,
      "closing": 2079,
      "lifts": 2080,
      "finding": 2081,
      "min": 2082,
      "umb": 2083,
      "wrist": 2084,
      "##ky": 2085,
      "##rella": 2086,
      "seek": 2087,
      "boxes": 2088,
      "##rowave": 2089,
      "engage": 2090,
      "enters": 2091,
      "##forms": 2092,
      "devil": 2093,
      "dizzy": 2094,
      "microwave": 2095,
      "umbrella": 2096,
      "fresh": 2097,
      "gard": 2098,
      "mist": 2099,
      "##mint": 2100,
      "island": 2101,
      "ann": 2102,
      "grace": 2103,
      "meal": 2104,
      "badmint": 2105,
      "persu": 2106,
      "ocean": 2107,
      "garden": 2108,
      "badminton": 2109,
      "rests": 2110,
      "ur": 2111,
      "onto": 2112,
      "seed": 2113,
      "spin": 2114,
      "spider": 2115,
      "cast": 2116,
      "backward": 2117,
      "reass": 2118,
      "perched": 2119,
      "greeting": 2120,
      "following": 2121,
      "bath": 2122,
      "cheerful": 2123,
      "animated": 2124,
      "##vior": 2125,
      "##bles": 2126,
      "waist": 2127,
      "discussing": 2128,
      "depressed": 2129,
      "easel": 2130,
      "##cking": 2131,
      "except": 2132,
      "arrive": 2133,
      "claps": 2134,
      "finished": 2135,
      "norm": 2136,
      "sings": 2137,
      "soon": 2138,
      "##ake": 2139,
      "tall": 2140,
      "fold": 2141,
      "anx": 2142,
      "seeing": 2143,
      "sweet": 2144,
      "pleas": 2145,
      "street": 2146,
      "hungry": 2147,
      "invention": 2148,
      "anticip": 2149,
      "bou": 2150,
      "lou": 2151,
      "took": 2152,
      "##ows": 2153,
      "##resses": 2154,
      "##ession": 2155,
      "past": 2156,
      "visits": 2157,
      "message": 2158,
      "rush": 2159,
      "##orts": 2160,
      "tas": 2161,
      "soap": 2162,
      "shape": 2163,
      "reason": 2164,
      "spotlight": 2165,
      "encoura": 2166,
      "##erest": 2167,
      "behavior": 2168,
      "##icking": 2169,
      "plates": 2170,
      "sus": 2171,
      "pulling": 2172,
      "interru": 2173,
      "mark": 2174,
      "##gra": 2175,
      "##if": 2176,
      "smoke": 2177,
      "rec": 2178,
      "attemp": 2179,
      "fields": 2180,
      "grate": 2181,
      "drops": 2182,
      "tom": 2183,
      "step": 2184,
      "been": 2185,
      "deck": 2186,
      "##ized": 2187,
      "sunny": 2188,
      "lights": 2189,
      "path": 2190,
      "swinging": 2191,
      "throws": 2192,
      "understand": 2193,
      "vib": 2194,
      "sign": 2195,
      "cras": 2196,
      "diff": 2197,
      "hot": 2198,
      "##ible": 2199,
      "##ette": 2200,
      "##rant": 2201,
      "char": 2202,
      "sure": 2203,
      "mail": 2204,
      "glowing": 2205,
      "contemp": 2206,
      "palette": 2207,
      "dang": 2208,
      "vibrant": 2209,
      "contempl": 2210,
      "ran": 2211,
      "slo": 2212,
      "##ases": 2213,
      "dishes": 2214,
      "cons": 2215,
      "likes": 2216,
      "stuff": 2217,
      "gracefully": 2218,
      "bak": 2219,
      "kicks": 2220,
      "##ips": 2221,
      "tor": 2222,
      "##rious": 2223,
      "sticks": 2224,
      "cond": 2225,
      "flask": 2226,
      "angel": 2227,
      "chee": 2228,
      "planet": 2229,
      "fixes": 2230,
      "creation": 2231,
      "spreading": 2232,
      "concern": 2233,
      "mushrooms": 2234,
      "##ted": 2235,
      "##reat": 2236,
      "plast": 2237,
      "folds": 2238,
      "life": 2239,
      "misha": 2240,
      "##antly": 2241,
      "peaceful": 2242,
      "ventures": 2243,
      "plasters": 2244,
      "##cting": 2245,
      "##rets": 2246,
      "hills": 2247,
      "jugg": 2248,
      "pieces": 2249,
      "brou": 2250,
      "far": 2251,
      "##fo": 2252,
      "snee": 2253,
      "##ions": 2254,
      "##umble": 2255,
      "stopped": 2256,
      "intense": 2257,
      "paints": 2258,
      "penguin": 2259,
      "mishap": 2260,
      "brought": 2261,
      "brill": 2262,
      "racing": 2263,
      "##cle": 2264,
      "places": 2265,
      "save": 2266,
      "##als": 2267,
      "lift": 2268,
      "better": 2269,
      "sleighs": 2270,
      "shouts": 2271,
      "flees": 2272,
      "tiny": 2273,
      "baked": 2274,
      "pick": 2275,
      "ins": 2276,
      "##aying": 2277,
      "treat": 2278,
      "notices": 2279,
      "##izing": 2280,
      "fixed": 2281,
      "interest": 2282,
      "rubs": 2283,
      "paws": 2284,
      "esca": 2285,
      "astonished": 2286,
      "displays": 2287,
      "brilliant": 2288,
      "fan": 2289,
      "mind": 2290,
      "##cing": 2291,
      "floats": 2292,
      "cloud": 2293,
      "hurry": 2294,
      "delighted": 2295,
      "uniform": 2296,
      "gently": 2297,
      "##onent": 2298,
      "##uth": 2299,
      "spr": 2300,
      "seal": 2301,
      "breath": 2302,
      "helps": 2303,
      "touch": 2304,
      "earth": 2305,
      "awaits": 2306,
      "plead": 2307,
      "blinks": 2308,
      "observe": 2309,
      "praises": 2310,
      "examines": 2311,
      "##dge": 2312,
      "##loo": 2313,
      "##lin": 2314,
      "##esses": 2315,
      "focus": 2316,
      "clen": 2317,
      "twice": 2318,
      "mission": 2319,
      "pass": 2320,
      "gesture": 2321,
      "sailing": 2322,
      "don": 2323,
      "felt": 2324,
      "##ection": 2325,
      "##sive": 2326,
      "##hero": 2327,
      "##aring": 2328,
      "cold": 2329,
      "five": 2330,
      "staring": 2331,
      "tried": 2332,
      "hula": 2333,
      "superhero": 2334,
      "drawer": 2335,
      "stretching": 2336,
      "didn": 2337,
      "awaken": 2338,
      "closely": 2339,
      "grateful": 2340,
      "band": 2341,
      "tow": 2342,
      "toys": 2343,
      "##ndering": 2344,
      "magn": 2345,
      "greetings": 2346,
      "await": 2347,
      "serves": 2348,
      "building": 2349,
      "lear": 2350,
      "nice": 2351,
      "smell": 2352,
      "herself": 2353,
      "giving": 2354,
      "##box": 2355,
      "determination": 2356,
      "crew": 2357,
      "once": 2358,
      "tale": 2359,
      "##ddies": 2360,
      "buddies": 2361,
      "truth": 2362,
      "careful": 2363,
      "furious": 2364,
      "commun": 2365,
      "spinning": 2366,
      "##graph": 2367,
      "ign": 2368,
      "##zes": 2369,
      "legs": 2370,
      "pursu": 2371,
      "beam": 2372,
      "relief": 2373,
      "celebrates": 2374,
      "zooms": 2375,
      "burn": 2376,
      "mus": 2377,
      "##ary": 2378,
      "stom": 2379,
      "uns": 2380,
      "decide": 2381,
      "stuck": 2382,
      "grows": 2383,
      "normal": 2384,
      "contemplates": 2385,
      "bru": 2386,
      "den": 2387,
      "rain": 2388,
      "##cu": 2389,
      "##uct": 2390,
      "##wor": 2391,
      "##ition": 2392,
      "shake": 2393,
      "worry": 2394,
      "cleaner": 2395,
      "perform": 2396,
      "dinner": 2397,
      "transformation": 2398,
      "frightened": 2399,
      "communic": 2400,
      "bus": 2401,
      "luck": 2402,
      "mask": 2403,
      "pushes": 2404,
      "##ail": 2405,
      "pol": 2406,
      "##alle": 2407,
      "challe": 2408,
      "bobs": 2409,
      "noise": 2410,
      "unve": 2411,
      "fail": 2412,
      "pull": 2413,
      "##ream": 2414,
      "bottle": 2415,
      "captures": 2416,
      "keeper": 2417,
      "impress": 2418,
      "forgive": 2419,
      "embraces": 2420,
      "powerful": 2421,
      "opponent": 2422,
      "tu": 2423,
      "ter": 2424,
      "##de": 2425,
      "##made": 2426,
      "##verses": 2427,
      "##unch": 2428,
      "casts": 2429,
      "disag": 2430,
      "appla": 2431,
      "drive": 2432,
      "baskets": 2433,
      "decided": 2434,
      "shel": 2435,
      "touching": 2436,
      "claim": 2437,
      "strongest": 2438,
      "strikes": 2439,
      "imagines": 2440,
      "refle": 2441,
      "trouble": 2442,
      "danger": 2443,
      "bum": 2444,
      "cry": 2445,
      "##xed": 2446,
      "sports": 2447,
      "leg": 2448,
      "braves": 2449,
      "dreams": 2450,
      "compliments": 2451,
      "shines": 2452,
      "mini": 2453,
      "mistake": 2454,
      "##work": 2455,
      "bid": 2456,
      "count": 2457,
      "##ging": 2458,
      "##dent": 2459,
      "##iss": 2460,
      "##ete": 2461,
      "##cho": 2462,
      "arg": 2463,
      "few": 2464,
      "trident": 2465,
      "glad": 2466,
      "chest": 2467,
      "jumped": 2468,
      "snowmen": 2469,
      "continues": 2470,
      "imagination": 2471,
      "balance": 2472,
      "##ney": 2473,
      "spotlights": 2474,
      "oven": 2475,
      "presses": 2476,
      "##owly": 2477,
      "inj": 2478,
      "##rint": 2479,
      "roll": 2480,
      "spins": 2481,
      "arrow": 2482,
      "slowly": 2483,
      "adv": 2484,
      "knows": 2485,
      "tomorrow": 2486,
      "bruises": 2487,
      "ve": 2488,
      "##more": 2489,
      "edge": 2490,
      "caut": 2491,
      "balls": 2492,
      "scat": 2493,
      "reach": 2494,
      "world": 2495,
      "sledding": 2496,
      "warning": 2497,
      "##body": 2498,
      "anymore": 2499
    }
  }
}