{
  "version": "1.0",
  "truncation": null,
  "padding": null,
  "added_tokens": [
    {
      "id": 0,
      "content": "[UNK]",
      "single_word": false,
      "lstrip": false,
      "rstrip": false,
      "normalized": false,
      "special": true
    },
    {
      "id": 1,
      "content": "[PAD]",
      "single_word": false,
      "lstrip": false,
      "rstrip": false,
      "normalized": false,
      "special": true
    },
    {
      "id": 2,
      "content": "[CLS]",
      "single_word": false,
      "lstrip": false,
      "rstrip": false,
      "normalized": false,
      "special": true
    },
    {
      "id": 3,
      "content": "[SEP]",
      "single_word": false,
      "lstrip": false,
      "rstrip": false,
      "normalized": false,
      "special": true
    },
    {
      "id": 4,
      "content": "[MASK]",
      "single_word": false,
      "lstrip": false,
      "rstrip": false,
      "normalized": false,
      "special": true
    }
  ],
  "normalizer": {
    "type": "Sequence",
    "normalizers": [
      {
        "type": "NFD"
      },
      {
        "type": "Lowercase"
      },
      {
        "type": "StripAccents"
      }
    ]
  },
  "pre_tokenizer": {
    "type": "BertPreTokenizer"
  },
  "post_processor": {
    "type": "TemplateProcessing",
    "single": [
      {
        "SpecialToken": {
          "id": "[CLS]",
          "type_id": 0
        }
      },
      {
        "Sequence": {
          "id": "A",
          "type_id": 0
        }
      },
      {
        "SpecialToken": {
          "id": "[SEP]",
          "type_id": 0
        }
      }
    ],
    "pair": [
      {
        "SpecialToken": {
          "id": "[CLS]",
          "type_id": 0
        }
      },
      {
        "Sequence": {
          "id": "A",
          "type_id": 0
        }
      },
      {
        "SpecialToken": {
          "id": "[SEP]",
          "type_id": 0
        }
      },
      {
        "Sequence": {
          "id": "B",
          "type_id": 1
        }
      },
      {
        "SpecialToken": {
          "id": "[SEP]",
          "type_id": 1
        }
      }
    ],
    "special_tokens": {
      "[CLS]": {
        "id": "[CLS]",
        "ids": [
          2
        ],
        "tokens": [
          "[CLS]"
        ]
      },
      "[SEP]": {
        "id": "[SEP]",
        "ids": [
          3
        ],
        "tokens": [
          "[SEP]"
        ]
      }
    }
  },
  "decoder": {
    "type": "WordPiece",
    "prefix": "##",
    "cleanup": true
  },
  "model": {
    "type": "WordPiece",
    "unk_token": "[UNK]",
    "continuing_subword_prefix": "##",
    "max_input_chars_per_word": 100,
    "vocab": {
      "[UNK]": 0,
      "[PAD]": 1,
      "[CLS]": 2,
      "[SEP]": 3,
      "[MASK]": 4,
      "'": 5,
      "-": 6,
      ".": 7,
      "2": 8,
      "3": 9,
      "4": 10,
      "5": 11,
      "8": 12,
      "a": 13,
      "b": 14,
      "c": 15,
      "d": 16,
      "e": 17,
      "f": 18,
      "g": 19,
      "h": 20,
      "i": 21,
      "j": 22,
      "k": 23,
      "l": 24,
      "m": 25,
      "n": 26,
      "o": 27,
      "p": 28,
      "q": 29,
      "r": 30,
      "s": 31,
      "t": 32,
      "u": 33,
      "v": 34,
      "w": 35,
      "x": 36,
      "y": 37,
      "z": 38,
      "##s": 39,
      "##l": 40,
      "##e": 41,
      "##p": 42,
      "##u": 43,
      "##n": 44,
      "##c": 45,
      "##h": 46,
      "##y": 47,
      "##a": 48,
      "##d": 49,
      "##w": 50,
      "##i": 51,
      "##m": 52,
      "##t": 53,
      "##r": 54,
      "##k": 55,
      "##o": 56,
      "##g": 57,
      "##x": 58,
      "##v": 59,
      "##b": 60,
      "##f": 61,
      "##z": 62,
      "##j": 63,
      "##q": 64,
      "##ro": 65,
      "##ng": 66,
      "th": 67,
      "##nd": 68,
      "the": 69,
      "po": 70,
      "##ing": 71,
      "is": 72,
      "and": 73,
      "##re": 74,
      "##oo": 75,
      "to": 76,
      "##roro": 77,
      "pororo": 78,
      "##dy": 79,
      "loo": 80,
      "##es": 81,
      "##rong": 82,
      "crong": 83,
      "ed": 84,
      "eddy": 85,
      "##ar": 86,
      "##er": 87,
      "##et": 88,
      "##is": 89,
      "##ed": 90,
      "##py": 91,
      "##at": 92,
      "##ow": 93,
      "loopy": 94,
      "##ll": 95,
      "##by": 96,
      "are": 97,
      "poby": 98,
      "in": 99,
      "##ou": 100,
      "on": 101,
      "##it": 102,
      "##ry": 103,
      "##le": 104,
      "##ri": 105,
      "##and": 106,
      "##ks": 107,
      "##ett": 108,
      "##ay": 109,
      "ro": 110,
      "of": 111,
      "his": 112,
      "pett": 113,
      "petty": 114,
      "##in": 115,
      "##en": 116,
      "##now": 117,
      "##om": 118,
      "##ea": 119,
      "st": 120,
      "har": 121,
      "snow": 122,
      "harry": 123,
      "##se": 124,
      "##king": 125,
      "wit": 126,
      "with": 127,
      "##ac": 128,
      "rody": 129,
      "##on": 130,
      "at": 131,
      "##id": 132,
      "##as": 133,
      "##ut": 134,
      "##ve": 135,
      "##an": 136,
      "wh": 137,
      "##al": 138,
      "##nds": 139,
      "that": 140,
      "##to": 141,
      "fri": 142,
      "frie": 143,
      "##ld": 144,
      "fro": 145,
      "be": 146,
      "##ig": 147,
      "friends": 148,
      "say": 149,
      "##ur": 150,
      "##hing": 151,
      "hou": 152,
      "house": 153,
      "##all": 154,
      "##red": 155,
      "##rou": 156,
      "##ic": 157,
      "there": 158,
      "hand": 159,
      "##or": 160,
      "sh": 161,
      "bl": 162,
      "##ot": 163,
      "co": 164,
      "tong": 165,
      "##tong": 166,
      "tongtong": 167,
      "##ly": 168,
      "som": 169,
      "##round": 170,
      "##ind": 171,
      "##vered": 172,
      "covered": 173,
      "sk": 174,
      "##ead": 175,
      "car": 176,
      "##ir": 177,
      "it": 178,
      "##nt": 179,
      "##old": 180,
      "as": 181,
      "says": 182,
      "sm": 183,
      "sky": 184,
      "looks": 185,
      "##her": 186,
      "##ue": 187,
      "##ide": 188,
      "hold": 189,
      "##st": 190,
      "tal": 191,
      "##ad": 192,
      "##ht": 193,
      "blue": 194,
      "##ook": 195,
      "##ke": 196,
      "se": 197,
      "##ap": 198,
      "her": 199,
      "up": 200,
      "##il": 201,
      "##ch": 202,
      "somet": 203,
      "something": 204,
      "cl": 205,
      "they": 206,
      "##ts": 207,
      "out": 208,
      "head": 209,
      "##ell": 210,
      "go": 211,
      "red": 212,
      "looking": 213,
      "front": 214,
      "##ain": 215,
      "pl": 216,
      "##un": 217,
      "##ver": 218,
      "ta": 219,
      "##ile": 220,
      "##ack": 221,
      "stand": 222,
      "fl": 223,
      "##urp": 224,
      "##ting": 225,
      "##oor": 226,
      "com": 227,
      "##ris": 228,
      "##out": 229,
      "##ag": 230,
      "##ight": 231,
      "tre": 232,
      "##el": 233,
      "for": 234,
      "smil": 235,
      "beh": 236,
      "su": 237,
      "##im": 238,
      "##ear": 239,
      "hands": 240,
      "behind": 241,
      "##ill": 242,
      "from": 243,
      "##own": 244,
      "##ble": 245,
      "around": 246,
      "##am": 247,
      "surp": 248,
      "surpris": 249,
      "cle": 250,
      "##ore": 251,
      "down": 252,
      "ch": 253,
      "bo": 254,
      "by": 255,
      "##ft": 256,
      "##ood": 257,
      "while": 258,
      "holding": 259,
      "surprised": 260,
      "ab": 261,
      "do": 262,
      "sit": 263,
      "##au": 264,
      "an": 265,
      "##ace": 266,
      "al": 267,
      "##urn": 268,
      "door": 269,
      "wal": 270,
      "##ck": 271,
      "##ers": 272,
      "##ep": 273,
      "run": 274,
      "sp": 275,
      "about": 276,
      "talking": 277,
      "clo": 278,
      "trees": 279,
      "get": 280,
      "standing": 281,
      "so": 282,
      "back": 283,
      "turn": 284,
      "ju": 285,
      "##one": 286,
      "##ion": 287,
      "##ves": 288,
      "fis": 289,
      "not": 290,
      "ex": 291,
      "##ies": 292,
      "clear": 293,
      "##ther": 294,
      "ar": 295,
      "##ie": 296,
      "table": 297,
      "has": 298,
      "##ach": 299,
      "##pen": 300,
      "other": 301,
      "hap": 302,
      "wa": 303,
      "toy": 304,
      "them": 305,
      "##ark": 306,
      "all": 307,
      "book": 308,
      "asks": 309,
      "ground": 310,
      "##kes": 311,
      "sitting": 312,
      "look": 313,
      "ball": 314,
      "land": 315,
      "##ce": 316,
      "see": 317,
      "##ving": 318,
      "sl": 319,
      "what": 320,
      "some": 321,
      "talks": 322,
      "##ere": 323,
      "fore": 324,
      "##ip": 325,
      "was": 326,
      "cook": 327,
      "pig": 328,
      "##ning": 329,
      "open": 330,
      "##pp": 331,
      "star": 332,
      "play": 333,
      "ey": 334,
      "##ave": 335,
      "dr": 336,
      "put": 337,
      "##us": 338,
      "##ms": 339,
      "##way": 340,
      "holds": 341,
      "##ard": 342,
      "can": 343,
      "tell": 344,
      "##ate": 345,
      "##side": 346,
      "##atch": 347,
      "their": 348,
      "##ent": 349,
      "smiles": 350,
      "bec": 351,
      "##mp": 352,
      "turns": 353,
      "forest": 354,
      "ne": 355,
      "##ant": 356,
      "him": 357,
      "##ame": 358,
      "face": 359,
      "fi": 360,
      "away": 361,
      "saying": 362,
      "rea": 363,
      "li": 364,
      "sc": 365,
      "##ether": 366,
      "ma": 367,
      "fly": 368,
      "bes": 369,
      "but": 370,
      "ag": 371,
      "wood": 372,
      "##po": 373,
      "happy": 374,
      "tri": 375,
      "##utu": 376,
      "bed": 377,
      "dis": 378,
      "tutu": 379,
      "##res": 380,
      "le": 381,
      "##pl": 382,
      "right": 383,
      "no": 384,
      "gre": 385,
      "ever": 386,
      "smiling": 387,
      "##ec": 388,
      "every": 389,
      "beside": 390,
      "flying": 391,
      "wind": 392,
      "##gg": 393,
      "into": 394,
      "##ass": 395,
      "gets": 396,
      "walking": 397,
      "box": 398,
      "mo": 399,
      "gi": 400,
      "##aw": 401,
      "##iding": 402,
      "then": 403,
      "sto": 404,
      "call": 405,
      "##lly": 406,
      "app": 407,
      "##ause": 408,
      "because": 409,
      "ang": 410,
      "##ward": 411,
      "##ich": 412,
      "fe": 413,
      "wor": 414,
      "jump": 415,
      "drag": 416,
      "each": 417,
      "cookies": 418,
      "snowed": 419,
      "tog": 420,
      "together": 421,
      "##est": 422,
      "##ous": 423,
      "##dd": 424,
      "comes": 425,
      "running": 426,
      "one": 427,
      "tells": 428,
      "##ould": 429,
      "##ound": 430,
      "dragon": 431,
      "##so": 432,
      "also": 433,
      "everyone": 434,
      "left": 435,
      "flow": 436,
      "big": 437,
      "eyes": 438,
      "##ra": 439,
      "mon": 440,
      "cat": 441,
      "tw": 442,
      "window": 443,
      "clock": 444,
      "wooden": 445,
      "##gh": 446,
      "sled": 447,
      "thin": 448,
      "tries": 449,
      "show": 450,
      "con": 451,
      "fish": 452,
      "angry": 453,
      "##ght": 454,
      "sle": 455,
      "now": 456,
      "##ast": 457,
      "poin": 458,
      "got": 459,
      "green": 460,
      "fishing": 461,
      "sea": 462,
      "will": 463,
      "aft": 464,
      "pic": 465,
      "after": 466,
      "##ises": 467,
      "ra": 468,
      "##ings": 469,
      "sw": 470,
      "##ket": 471,
      "dark": 472,
      "rob": 473,
      "##ated": 474,
      "arms": 475,
      "robot": 476,
      "going": 477,
      "sha": 478,
      "like": 479,
      "wear": 480,
      "two": 481,
      "sa": 482,
      "shark": 483,
      "clos": 484,
      "##ains": 485,
      "find": 486,
      "hear": 487,
      "##ice": 488,
      "dri": 489,
      "roo": 490,
      "##rying": 491,
      "black": 492,
      "sugg": 493,
      "##ery": 494,
      "hill": 495,
      "puts": 496,
      "opens": 497,
      "##dden": 498,
      "feel": 499,
      "##ine": 500,
      "outside": 501,
      "sudden": 502,
      "very": 503,
      "##row": 504,
      "which": 505,
      "##air": 506,
      "have": 507,
      "##ating": 508,
      "if": 509,
      "##mb": 510,
      "##ps": 511,
      "expl": 512,
      "br": 513,
      "mad": 514,
      "##ching": 515,
      "##ted": 516,
      "over": 517,
      "yell": 518,
      "suddenly": 519,
      "wat": 520,
      "##ff": 521,
      "##key": 522,
      "monkey": 523,
      "read": 524,
      "##xt": 525,
      "walks": 526,
      "again": 527,
      "lea": 528,
      "re": 529,
      "##read": 530,
      "bas": 531,
      "mag": 532,
      "next": 533,
      "basket": 534,
      "tr": 535,
      "does": 536,
      "##ess": 537,
      "##nder": 538,
      "really": 539,
      "starts": 540,
      "##ush": 541,
      "##ick": 542,
      "yellow": 543,
      "gl": 544,
      "##ul": 545,
      "ca": 546,
      "coming": 547,
      "road": 548,
      "floor": 549,
      "seated": 550,
      "wearing": 551,
      "sees": 552,
      "who": 553,
      "room": 554,
      "magic": 555,
      "small": 556,
      "pir": 557,
      "pirate": 558,
      "exc": 559,
      "off": 560,
      "pie": 561,
      "come": 562,
      "this": 563,
      "sant": 564,
      "santa": 565,
      "sing": 566,
      "raises": 567,
      "toward": 568,
      "fin": 569,
      "boat": 570,
      "##per": 571,
      "how": 572,
      "##ure": 573,
      "good": 574,
      "wall": 575,
      "fo": 576,
      "ice": 577,
      "side": 578,
      "runs": 579,
      "##ount": 580,
      "lau": 581,
      "##ret": 582,
      "flowers": 583,
      "points": 584,
      "##ation": 585,
      "air": 586,
      "just": 587,
      "said": 588,
      "doll": 589,
      "tree": 590,
      "##ome": 591,
      "##ink": 592,
      "##nge": 593,
      "fix": 594,
      "##ests": 595,
      "##ist": 596,
      "##ane": 597,
      "butt": 598,
      "where": 599,
      "##igh": 600,
      "hat": 601,
      "##ches": 602,
      "sleep": 603,
      "cu": 604,
      "bu": 605,
      "##eep": 606,
      "##ds": 607,
      "pigs": 608,
      "##ides": 609,
      "bot": 610,
      "should": 611,
      "##idd": 612,
      "came": 613,
      "fall": 614,
      "than": 615,
      "reading": 616,
      "pip": 617,
      "##aces": 618,
      "pipi": 619,
      "calls": 620,
      "inside": 621,
      "finds": 622,
      "##ally": 623,
      "##ong": 624,
      "riding": 625,
      "##ved": 626,
      "appro": 627,
      "dec": 628,
      "waves": 629,
      "purp": 630,
      "##atches": 631,
      "disap": 632,
      "smile": 633,
      "mount": 634,
      "jumping": 635,
      "suggests": 636,
      "light": 637,
      "frog": 638,
      "snowing": 639,
      "popo": 640,
      "##etting": 641,
      "##ying": 642,
      "##sel": 643,
      "man": 644,
      "##oc": 645,
      "playing": 646,
      "##lla": 647,
      "stands": 648,
      "##iz": 649,
      "told": 650,
      "##ited": 651,
      "purple": 652,
      "under": 653,
      "wo": 654,
      "make": 655,
      "mout": 656,
      "sad": 657,
      "##ree": 658,
      "mouth": 659,
      "gat": 660,
      "##ty": 661,
      "##tion": 662,
      "##ants": 663,
      "qu": 664,
      "thinks": 665,
      "pict": 666,
      "##ull": 667,
      "##erf": 668,
      "##ress": 669,
      "seems": 670,
      "eye": 671,
      "ans": 672,
      "wants": 673,
      "throu": 674,
      "ask": 675,
      "through": 676,
      "midd": 677,
      "middle": 678,
      "flo": 679,
      "answ": 680,
      "hu": 681,
      "made": 682,
      "near": 683,
      "home": 684,
      "waving": 685,
      "cou": 686,
      "excited": 687,
      "##ried": 688,
      "##sing": 689,
      "know": 690,
      "##cc": 691,
      "keep": 692,
      "##bb": 693,
      "##tle": 694,
      "goes": 695,
      "sof": 696,
      "doesn": 697,
      "glass": 698,
      "bread": 699,
      "id": 700,
      "bro": 701,
      "hell": 702,
      "##ge": 703,
      "super": 704,
      "hello": 705,
      "##ny": 706,
      "##ish": 707,
      "scr": 708,
      "dish": 709,
      "sun": 710,
      "sofa": 711,
      "##ground": 712,
      "singing": 713,
      "ship": 714,
      "rod": 715,
      "arri": 716,
      "hiding": 717,
      "idea": 718,
      "playground": 719,
      "##ously": 720,
      "shakes": 721,
      "##poin": 722,
      "##ken": 723,
      "makes": 724,
      "did": 725,
      "floating": 726,
      "##oon": 727,
      "disappoin": 728,
      "couch": 729,
      "he": 730,
      "someone": 731,
      "pain": 732,
      "disappointed": 733,
      "##ered": 734,
      "found": 735,
      "##les": 736,
      "flies": 737,
      "butterf": 738,
      "##rilla": 739,
      "gorilla": 740,
      "cave": 741,
      "snowm": 742,
      "feels": 743,
      "tea": 744,
      "tim": 745,
      "broken": 746,
      "asking": 747,
      "##rist": 748,
      "eat": 749,
      "patch": 750,
      "##anc": 751,
      "moving": 752,
      "water": 753,
      "when": 754,
      "clean": 755,
      "jumps": 756,
      "explains": 757,
      "chair": 758,
      "pony": 759,
      "take": 760,
      "takes": 761,
      "worried": 762,
      "both": 763,
      "clou": 764,
      "che": 765,
      "place": 766,
      "di": 767,
      "row": 768,
      "sor": 769,
      "lit": 770,
      "sleeping": 771,
      "##range": 772,
      "cont": 773,
      "##hip": 774,
      "sorry": 775,
      "draw": 776,
      "flower": 777,
      "still": 778,
      "mu": 779,
      "##ang": 780,
      "##pe": 781,
      "little": 782,
      "any": 783,
      "##self": 784,
      "night": 785,
      "gr": 786,
      "trying": 787,
      "doing": 788,
      "snowman": 789,
      "de": 790,
      "lying": 791,
      "##oy": 792,
      "being": 793,
      "cookie": 794,
      "shows": 795,
      "##isten": 796,
      "##assed": 797,
      "gives": 798,
      "##ake": 799,
      "##bo": 800,
      "##lo": 801,
      "stops": 802,
      "##ied": 803,
      "chas": 804,
      "spaces": 805,
      "drin": 806,
      "picture": 807,
      "bit": 808,
      "danc": 809,
      "##ates": 810,
      "arm": 811,
      "##ield": 812,
      "emb": 813,
      "listen": 814,
      "mach": 815,
      "wand": 816,
      "##ball": 817,
      "machine": 818,
      "int": 819,
      "plane": 820,
      "spaceship": 821,
      "plate": 822,
      "watching": 823,
      "were": 824,
      "tou": 825,
      "hel": 826,
      "gift": 827,
      "body": 828,
      "##aught": 829,
      "laugh": 830,
      "sur": 831,
      "##llow": 832,
      "pull": 833,
      "time": 834,
      "##estion": 835,
      "un": 836,
      "##bs": 837,
      "##age": 838,
      "##ocks": 839,
      "##ping": 840,
      "why": 841,
      "swing": 842,
      "follow": 843,
      "par": 844,
      "##arr": 845,
      "hard": 846,
      "##ful": 847,
      "caught": 848,
      "snowy": 849,
      "stop": 850,
      "field": 851,
      "explain": 852,
      "##ily": 853,
      "clap": 854,
      "glasses": 855,
      "space": 856,
      "ok": 857,
      "new": 858,
      "lam": 859,
      "dancing": 860,
      "bet": 861,
      "embarr": 862,
      "ho": 863,
      "blocks": 864,
      "along": 865,
      "scratches": 866,
      "boo": 867,
      "would": 868,
      "##co": 869,
      "del": 870,
      "##een": 871,
      "curi": 872,
      "mountains": 873,
      "surround": 874,
      "piece": 875,
      "lamp": 876,
      "sound": 877,
      "too": 878,
      "stick": 879,
      "song": 880,
      "getting": 881,
      "##th": 882,
      "catch": 883,
      "approach": 884,
      "happen": 885,
      "##ious": 886,
      "sand": 887,
      "##bble": 888,
      "embarrassed": 889,
      "ba": 890,
      "##os": 891,
      "chasing": 892,
      "gra": 893,
      "finally": 894,
      "##mas": 895,
      "christ": 896,
      "answers": 897,
      "christmas": 898,
      "##rec": 899,
      "stret": 900,
      "help": 901,
      "himself": 902,
      "many": 903,
      "rel": 904,
      "##ost": 905,
      "##orm": 906,
      "moves": 907,
      "showing": 908,
      "closes": 909,
      "thanks": 910,
      "##ween": 911,
      "putting": 912,
      "give": 913,
      "between": 914,
      "pro": 915,
      "##ared": 916,
      "##wich": 917,
      "sandwich": 918,
      "or": 919,
      "team": 920,
      "##iff": 921,
      "##ling": 922,
      "story": 923,
      "well": 924,
      "bear": 925,
      "closer": 926,
      "finish": 927,
      "books": 928,
      "sou": 929,
      "heads": 930,
      "wait": 931,
      "surrounded": 932,
      "##uck": 933,
      "gather": 934,
      "sal": 935,
      "##nc": 936,
      "##ering": 937,
      "##ushes": 938,
      "more": 939,
      "making": 940,
      "pri": 941,
      "##ghing": 942,
      "##isf": 943,
      "##atisf": 944,
      "step": 945,
      "agre": 946,
      "hit": 947,
      "cliff": 948,
      "name": 949,
      "joy": 950,
      "##wh": 951,
      "strong": 952,
      "##ance": 953,
      "shaking": 954,
      "laughs": 955,
      "##ever": 956,
      "##other": 957,
      "sleigh": 958,
      "okay": 959,
      "goal": 960,
      "happ": 961,
      "start": 962,
      "however": 963,
      "##head": 964,
      "throw": 965,
      "##elf": 966,
      "another": 967,
      "spea": 968,
      "nods": 969,
      "you": 970,
      "##oice": 971,
      "cake": 972,
      "three": 973,
      "laughing": 974,
      "fast": 975,
      "hi": 976,
      "shoulder": 977,
      "fir": 978,
      "ha": 979,
      "here": 980,
      "##ets": 981,
      "wakes": 982,
      "nose": 983,
      "##ressed": 984,
      "curious": 985,
      "soup": 986,
      "##ster": 987,
      "whether": 988,
      "woods": 989,
      "friend": 990,
      "happily": 991,
      "din": 992,
      "ear": 993,
      "##ise": 994,
      "butterfly": 995,
      "ru": 996,
      "went": 997,
      "want": 998,
      "forward": 999,
      "pret": 1000,
      "vill": 1001,
      "spread": 1002,
      "hur": 1003,
      "##airs": 1004,
      "##fore": 1005,
      "having": 1006,
      "try": 1007,
      "telling": 1008,
      "move": 1009,
      "contin": 1010,
      "##atisfied": 1011,
      "first": 1012,
      "food": 1013,
      "hide": 1014,
      "##not": 1015,
      "cannot": 1016,
      "gray": 1017,
      "im": 1018,
      "pass": 1019,
      "care": 1020,
      "round": 1021,
      "pink": 1022,
      "##zen": 1023,
      "frozen": 1024,
      "walk": 1025,
      "socc": 1026,
      "asked": 1027,
      "soccer": 1028,
      "##ock": 1029,
      "roll": 1030,
      "swim": 1031,
      "##ares": 1032,
      "##where": 1033,
      "apple": 1034,
      "using": 1035,
      "strange": 1036,
      "opened": 1037,
      "am": 1038,
      "lot": 1039,
      "##fe": 1040,
      "top": 1041,
      "picks": 1042,
      "##ures": 1043,
      "##ove": 1044,
      "ent": 1045,
      "lake": 1046,
      "bat": 1047,
      "feeling": 1048,
      "me": 1049,
      "snowball": 1050,
      "scared": 1051,
      "think": 1052,
      "shap": 1053,
      "bye": 1054,
      "called": 1055,
      "##uc": 1056,
      "##uses": 1057,
      "happened": 1058,
      "continu": 1059,
      "ac": 1060,
      "brings": 1061,
      "agrees": 1062,
      "bubble": 1063,
      "satisfied": 1064,
      "##ite": 1065,
      "thinking": 1066,
      "train": 1067,
      "had": 1068,
      "##hered": 1069,
      "calling": 1070,
      "question": 1071,
      "##ss": 1072,
      "##ring": 1073,
      "##rea": 1074,
      "rem": 1075,
      "voice": 1076,
      "##ully": 1077,
      "##vers": 1078,
      "bag": 1079,
      "##plane": 1080,
      "swings": 1081,
      "airplane": 1082,
      "##qu": 1083,
      "stairs": 1084,
      "listening": 1085,
      "same": 1086,
      "en": 1087,
      "fr": 1088,
      "res": 1089,
      "its": 1090,
      "close": 1091,
      "gathered": 1092,
      "touches": 1093,
      "##ncess": 1094,
      "princess": 1095,
      "cr": 1096,
      "mom": 1097,
      "way": 1098,
      "##lies": 1099,
      "##alls": 1100,
      "alone": 1101,
      "others": 1102,
      "fing": 1103,
      "high": 1104,
      "##ream": 1105,
      "##aching": 1106,
      "compl": 1107,
      "##thing": 1108,
      "##icious": 1109,
      "##ears": 1110,
      "approaching": 1111,
      "bri": 1112,
      "bad": 1113,
      "we": 1114,
      "##uation": 1115,
      "##day": 1116,
      "situation": 1117,
      "monster": 1118,
      "conf": 1119,
      "decides": 1120,
      "mountain": 1121,
      "relie": 1122,
      "fa": 1123,
      "##lor": 1124,
      "color": 1125,
      "somewhere": 1126,
      "seesaw": 1127,
      "keeps": 1128,
      "old": 1129,
      "sits": 1130,
      "joyously": 1131,
      "imag": 1132,
      "moment": 1133,
      "heard": 1134,
      "leaving": 1135,
      "villain": 1136,
      "apo": 1137,
      "##room": 1138,
      "spot": 1139,
      "driver": 1140,
      "wond": 1141,
      "##log": 1142,
      "apolog": 1143,
      "low": 1144,
      "setting": 1145,
      "##aur": 1146,
      "overalls": 1147,
      "##osaur": 1148,
      "dinosaur": 1149,
      "bea": 1150,
      "mas": 1151,
      "##set": 1152,
      "pole": 1153,
      "pointing": 1154,
      "wonder": 1155,
      "war": 1156,
      "##act": 1157,
      "blin": 1158,
      "direc": 1159,
      "approaches": 1160,
      "##ming": 1161,
      "agree": 1162,
      "bring": 1163,
      "fold": 1164,
      "gig": 1165,
      "##wn": 1166,
      "##ien": 1167,
      "##ines": 1168,
      "nodd": 1169,
      "stretches": 1170,
      "saw": 1171,
      "thou": 1172,
      "gun": 1173,
      "exp": 1174,
      "##ven": 1175,
      "falling": 1176,
      "clapping": 1177,
      "bow": 1178,
      "##ange": 1179,
      "##omes": 1180,
      "drink": 1181,
      "wonders": 1182,
      "mis": 1183,
      "mea": 1184,
      "##ton": 1185,
      "things": 1186,
      "delicious": 1187,
      "before": 1188,
      "juice": 1189,
      "##led": 1190,
      "steps": 1191,
      "direction": 1192,
      "painting": 1193,
      "hea": 1194,
      "wings": 1195,
      "##antic": 1196,
      "gigantic": 1197,
      "game": 1198,
      "##tor": 1199,
      "belly": 1200,
      "leaves": 1201,
      "falls": 1202,
      "##fully": 1203,
      "cup": 1204,
      "##board": 1205,
      "hides": 1206,
      "pan": 1207,
      "tast": 1208,
      "clouds": 1209,
      "party": 1210,
      "##cei": 1211,
      "feet": 1212,
      "##reat": 1213,
      "##our": 1214,
      "forehead": 1215,
      "let": 1216,
      "##ross": 1217,
      "##rew": 1218,
      "stares": 1219,
      "plan": 1220,
      "could": 1221,
      "fell": 1222,
      "stic": 1223,
      "##amm": 1224,
      "wears": 1225,
      "arrives": 1226,
      "thought": 1227,
      "yes": 1228,
      "##ses": 1229,
      "##ird": 1230,
      "paw": 1231,
      "huge": 1232,
      "arrived": 1233,
      "relieved": 1234,
      "shelf": 1235,
      "above": 1236,
      "butterflies": 1237,
      "link": 1238,
      "##izes": 1239,
      "linked": 1240,
      "pres": 1241,
      "snows": 1242,
      "carrying": 1243,
      "chang": 1244,
      "explaining": 1245,
      "heav": 1246,
      "##az": 1247,
      "##min": 1248,
      "##ect": 1249,
      "gu": 1250,
      "hamm": 1251,
      "pre": 1252,
      "alien": 1253,
      "slide": 1254,
      "fixing": 1255,
      "##most": 1256,
      "colo": 1257,
      "almost": 1258,
      "colored": 1259,
      "cam": 1260,
      "dep": 1261,
      "line": 1262,
      "potion": 1263,
      "##era": 1264,
      "rope": 1265,
      "##ention": 1266,
      "need": 1267,
      "suggest": 1268,
      "##rown": 1269,
      "speaking": 1270,
      "nodding": 1271,
      "camera": 1272,
      "today": 1273,
      "string": 1274,
      "##cket": 1275,
      "##ept": 1276,
      "eating": 1277,
      "wrong": 1278,
      "fun": 1279,
      "lar": 1280,
      "ph": 1281,
      "rushes": 1282,
      "##ding": 1283,
      "##if": 1284,
      "##pped": 1285,
      "leg": 1286,
      "full": 1287,
      "thing": 1288,
      "##stand": 1289,
      "ready": 1290,
      "monkeys": 1291,
      "##bbing": 1292,
      "enj": 1293,
      "##ns": 1294,
      "pulls": 1295,
      "shoo": 1296,
      "shar": 1297,
      "clim": 1298,
      "turned": 1299,
      "becomes": 1300,
      "bigg": 1301,
      "hears": 1302,
      "leave": 1303,
      "ref": 1304,
      "cloudy": 1305,
      "orange": 1306,
      "ple": 1307,
      "rink": 1308,
      "vis": 1309,
      "work": 1310,
      "lowers": 1311,
      "masks": 1312,
      "##torm": 1313,
      "snowstorm": 1314,
      "prep": 1315,
      "large": 1316,
      "rec": 1317,
      "stu": 1318,
      "stay": 1319,
      "real": 1320,
      "word": 1321,
      "aliens": 1322,
      "eng": 1323,
      "sliding": 1324,
      "button": 1325,
      "swimming": 1326,
      "engine": 1327,
      "##itch": 1328,
      "##bye": 1329,
      "goodbye": 1330,
      "much": 1331,
      "anything": 1332,
      "base": 1333,
      "mush": 1334,
      "comp": 1335,
      "sharks": 1336,
      "mushroom": 1337,
      "##ining": 1338,
      "finger": 1339,
      "present": 1340,
      "brown": 1341,
      "sn": 1342,
      "only": 1343,
      "##anket": 1344,
      "blanket": 1345,
      "##ushing": 1346,
      "understand": 1347,
      "rolling": 1348,
      "engineer": 1349,
      "pin": 1350,
      "prou": 1351,
      "##bin": 1352,
      "taking": 1353,
      "nothing": 1354,
      "recei": 1355,
      "cabin": 1356,
      "drawing": 1357,
      "proud": 1358,
      "moon": 1359,
      "##son": 1360,
      "looked": 1361,
      "roof": 1362,
      "pretty": 1363,
      "acc": 1364,
      "rest": 1365,
      "##ided": 1366,
      "##elt": 1367,
      "turning": 1368,
      "notic": 1369,
      "closed": 1370,
      "amaz": 1371,
      "##ase": 1372,
      "##rod": 1373,
      "introd": 1374,
      "part": 1375,
      "pra": 1376,
      "hung": 1377,
      "day": 1378,
      "kick": 1379,
      "took": 1380,
      "##ened": 1381,
      "reason": 1382,
      "long": 1383,
      "##ike": 1384,
      "##og": 1385,
      "fox": 1386,
      "fru": 1387,
      "depressed": 1388,
      "visit": 1389,
      "dro": 1390,
      "frying": 1391,
      "ran": 1392,
      "watch": 1393,
      "cover": 1394,
      "alrea": 1395,
      "pictures": 1396,
      "##ocked": 1397,
      "introduc": 1398,
      "already": 1399,
      "four": 1400,
      "kitch": 1401,
      "soon": 1402,
      "##umb": 1403,
      "##ces": 1404,
      "skating": 1405,
      "greets": 1406,
      "##ffl": 1407,
      "requ": 1408,
      "muffl": 1409,
      "bright": 1410,
      "kitchen": 1411,
      "av": 1412,
      "pal": 1413,
      "##sed": 1414,
      "stage": 1415,
      "likes": 1416,
      "paint": 1417,
      "fight": 1418,
      "mor": 1419,
      "bel": 1420,
      "opening": 1421,
      "bucket": 1422,
      "ord": 1423,
      "taste": 1424,
      "morning": 1425,
      "kn": 1426,
      "upset": 1427,
      "stopped": 1428,
      "spreads": 1429,
      "wondering": 1430,
      "##ness": 1431,
      "##anch": 1432,
      "bigger": 1433,
      "mic": 1434,
      "##um": 1435,
      "shou": 1436,
      "sure": 1437,
      "except": 1438,
      "##cope": 1439,
      "rep": 1440,
      "##atching": 1441,
      "##ents": 1442,
      "chec": 1443,
      "backward": 1444,
      "scratching": 1445,
      "cleaning": 1446,
      "##ins": 1447,
      "##be": 1448,
      "waiting": 1449,
      "vir": 1450,
      "##ive": 1451,
      "talk": 1452,
      "staring": 1453,
      "tried": 1454,
      "appears": 1455,
      "closing": 1456,
      "suggestion": 1457,
      "dev": 1458,
      "finished": 1459,
      "viruses": 1460,
      "coo": 1461,
      "pers": 1462,
      "##light": 1463,
      "post": 1464,
      "##rowave": 1465,
      "quick": 1466,
      "answer": 1467,
      "hits": 1468,
      "meet": 1469,
      "express": 1470,
      "climb": 1471,
      "pleas": 1472,
      "microwave": 1473,
      "foo": 1474,
      "nice": 1475,
      "##book": 1476,
      "inv": 1477,
      "stre": 1478,
      "white": 1479,
      "rais": 1480,
      "shaped": 1481,
      "catches": 1482,
      "faces": 1483,
      "felt": 1484,
      "##are": 1485,
      "att": 1486,
      "##erest": 1487,
      "complim": 1488,
      "folds": 1489,
      "last": 1490,
      "##oke": 1491,
      "handle": 1492,
      "brush": 1493,
      "pieces": 1494,
      "passing": 1495,
      "carefully": 1496,
      "stuff": 1497,
      "quickly": 1498,
      "cand": 1499,
      "norm": 1500,
      "plast": 1501,
      "truck": 1502,
      "didn": 1503,
      "grabs": 1504,
      "across": 1505,
      "belie": 1506,
      "ti": 1507,
      "inst": 1508,
      "rock": 1509,
      "##inning": 1510,
      "##ening": 1511,
      "check": 1512,
      "hole": 1513,
      "gathering": 1514,
      "shape": 1515,
      "blinking": 1516,
      "checks": 1517,
      "bird": 1518,
      "per": 1519,
      "##ize": 1520,
      "interest": 1521,
      "finishes": 1522,
      "booksh": 1523,
      "tel": 1524,
      "##escope": 1525,
      "##leep": 1526,
      "shining": 1527,
      "asleep": 1528,
      "decided": 1529,
      "bite": 1530,
      "muffler": 1531,
      "telescope": 1532,
      "ad": 1533,
      "wrist": 1534,
      "without": 1535,
      "##ash": 1536,
      "fright": 1537,
      "nod": 1538,
      "##ished": 1539,
      "bett": 1540,
      "bike": 1541,
      "##iet": 1542,
      "been": 1543,
      "skates": 1544,
      "clau": 1545,
      "##ggy": 1546,
      "jumped": 1547,
      "foggy": 1548,
      "pulling": 1549,
      "fields": 1550,
      "throws": 1551,
      "amazed": 1552,
      "street": 1553,
      "better": 1554,
      "claus": 1555,
      "race": 1556,
      "yaw": 1557,
      "##eel": 1558,
      "snowboard": 1559,
      "##ightly": 1560,
      "exch": 1561,
      "balloon": 1562,
      "convers": 1563,
      "hearing": 1564,
      "spreading": 1565,
      "conversation": 1566,
      "ea": 1567,
      "own": 1568,
      "tail": 1569,
      "lif": 1570,
      "##bbles": 1571,
      "following": 1572,
      "suggested": 1573,
      "easel": 1574,
      "far": 1575,
      "sin": 1576,
      "blow": 1577,
      "waist": 1578,
      "scri": 1579,
      "drinks": 1580,
      "prete": 1581,
      "confid": 1582,
      "det": 1583,
      "imp": 1584,
      "opp": 1585,
      "##ild": 1586,
      "wheel": 1587,
      "##orrow": 1588,
      "shad": 1589,
      "shout": 1590,
      "shocked": 1591,
      "aston": 1592,
      "board": 1593,
      "boxes": 1594,
      "thank": 1595,
      "quiet": 1596,
      "astonished": 1597,
      "aim": 1598,
      "til": 1599,
      "##ough": 1600,
      "plates": 1601,
      "best": 1602,
      "conc": 1603,
      "heavy": 1604,
      "bookshelf": 1605,
      "tra": 1606,
      "##oying": 1607,
      "##ron": 1608,
      "inc": 1609,
      "fruit": 1610,
      "trail": 1611,
      "brou": 1612,
      "dream": 1613,
      "##ries": 1614,
      "chest": 1615,
      "seeing": 1616,
      "scar": 1617,
      "twice": 1618,
      "fail": 1619,
      "imagines": 1620,
      "brought": 1621,
      "##ped": 1622,
      "##ination": 1623,
      "safe": 1624,
      "##body": 1625,
      "delight": 1626,
      "salty": 1627,
      "weat": 1628,
      "deter": 1629,
      "hoo": 1630,
      "##sc": 1631,
      "##dent": 1632,
      "##etch": 1633,
      "sketch": 1634,
      "pick": 1635,
      "leaf": 1636,
      "chee": 1637,
      "lots": 1638,
      "bowl": 1639,
      "sticks": 1640,
      "drops": 1641,
      "raising": 1642,
      "shadow": 1643,
      "sketchbook": 1644,
      "ser": 1645,
      "##ner": 1646,
      "##ette": 1647,
      "stone": 1648,
      "whis": 1649,
      "greet": 1650,
      "few": 1651,
      "sandwiches": 1652,
      "salt": 1653,
      "palette": 1654,
      "mer": 1655,
      "map": 1656,
      "vase": 1657,
      "forg": 1658,
      "started": 1659,
      "basketball": 1660,
      "keeper": 1661,
      "continually": 1662,
      "continuously": 1663,
      "enjoying": 1664,
      "foot": 1665,
      "candy": 1666,
      "##ale": 1667,
      "##more": 1668,
      "tom": 1669,
      "##oud": 1670,
      "whale": 1671,
      "smell": 1672,
      "##iling": 1673,
      "flas": 1674,
      "anymore": 1675,
      "gate": 1676,
      "kic": 1677,
      "mess": 1678,
      "ride": 1679,
      "##ned": 1680,
      "##mon": 1681,
      "##ute": 1682,
      "##ort": 1683,
      "worrying": 1684,
      "glad": 1685,
      "arrive": 1686,
      "swinging": 1687,
      "claps": 1688,
      "ears": 1689,
      "changed": 1690,
      "##lights": 1691,
      "pleased": 1692,
      "tired": 1693,
      "ahead": 1694,
      "dressed": 1695,
      "even": 1696,
      "gest": 1697,
      "##cu": 1698,
      "block": 1699,
      "trident": 1700,
      "decide": 1701,
      "rubs": 1702,
      "missing": 1703,
      "devil": 1704,
      "brea": 1705,
      "eff": 1706,
      "min": 1707,
      "umb": 1708,
      "##rella": 1709,
      "ski": 1710,
      "slightly": 1711,
      "fire": 1712,
      "unif": 1713,
      "stretching": 1714,
      "earth": 1715,
      "hammer": 1716,
      "avo": 1717,
      "merry": 1718,
      "umbrella": 1719,
      "count": 1720,
      "des": 1721,
      "end": 1722,
      "hang": 1723,
      "watches": 1724,
      "##pping": 1725,
      "great": 1726,
      "branch": 1727,
      "disapp": 1728,
      "hug": 1729,
      "speaks": 1730,
      "shouts": 1731,
      "weather": 1732,
      "fan": 1733,
      "##iously": 1734,
      "##ose": 1735,
      "##owly": 1736,
      "beg": 1737,
      "smoke": 1738,
      "slowly": 1739,
      "become": 1740,
      "seal": 1741,
      "knows": 1742,
      "prom": 1743,
      "beaut": 1744,
      "blinks": 1745,
      "praises": 1746,
      "normal": 1747,
      "plasters": 1748,
      "adm": 1749,
      "dom": 1750,
      "don": 1751,
      "##rap": 1752,
      "##ino": 1753,
      "wake": 1754,
      "share": 1755,
      "demon": 1756,
      "follows": 1757,
      "domino": 1758,
      "cor": 1759,
      "hair": 1760,
      "pu": 1761,
      "pat": 1762,
      "##ol": 1763,
      "##ges": 1764,
      "seem": 1765,
      "fishes": 1766,
      "dishes": 1767,
      "kicked": 1768,
      "bal": 1769,
      "esc": 1770,
      "lies": 1771,
      "ret": 1772,
      "##eared": 1773,
      "stri": 1774,
      "seed": 1775,
      "char": 1776,
      "plays": 1777,
      "disc": 1778,
      "driving": 1779,
      "badmin": 1780,
      "spotlights": 1781,
      "planet": 1782,
      "receives": 1783,
      "persu": 1784,
      "frightened": 1785,
      "flask": 1786,
      "escap": 1787,
      "return": 1788,
      "badminton": 1789,
      "may": 1790,
      "mir": 1791,
      "pr": 1792,
      "##ror": 1793,
      "threat": 1794,
      "##lec": 1795,
      "spe": 1796,
      "##ately": 1797,
      "diff": 1798,
      "grabbing": 1799,
      "gathers": 1800,
      "guess": 1801,
      "instead": 1802,
      "shouted": 1803,
      "determin": 1804,
      "mirror": 1805,
      "diz": 1806,
      "##ls": 1807,
      "##ru": 1808,
      "##get": 1809,
      "##vi": 1810,
      "##ze": 1811,
      "##omach": 1812,
      "##ign": 1813,
      "five": 1814,
      "strongly": 1815,
      "careful": 1816,
      "mushrooms": 1817,
      "notices": 1818,
      "uniform": 1819,
      "dizz": 1820,
      "burn": 1821,
      "mark": 1822,
      "##land": 1823,
      "##ely": 1824,
      "island": 1825,
      "spid": 1826,
      "soap": 1827,
      "##used": 1828,
      "lift": 1829,
      "hurry": 1830,
      "repe": 1831,
      "confident": 1832,
      "emp": 1833,
      "oc": 1834,
      "pushing": 1835,
      "##its": 1836,
      "clen": 1837,
      "notice": 1838,
      "balls": 1839,
      "angel": 1840,
      "sleds": 1841,
      "sledding": 1842,
      "contro": 1843,
      "drawer": 1844,
      "deck": 1845,
      "introduces": 1846,
      "effect": 1847,
      "determined": 1848,
      "breat": 1849,
      "##ee": 1850,
      "##ean": 1851,
      "seco": 1852,
      "succ": 1853,
      "mail": 1854,
      "##ushed": 1855,
      "among": 1856,
      "legs": 1857,
      "refuses": 1858,
      "realizes": 1859,
      "spider": 1860,
      "success": 1861,
      "jo": 1862,
      "lost": 1863,
      "loud": 1864,
      "mist": 1865,
      "press": 1866,
      "spec": 1867,
      "eats": 1868,
      "drinking": 1869,
      "sticking": 1870,
      "tomorrow": 1871,
      "presses": 1872,
      "cry": 1873,
      "cast": 1874,
      "dou": 1875,
      "done": 1876,
      "deep": 1877,
      "gave": 1878,
      "wel": 1879,
      "##emb": 1880,
      "##tom": 1881,
      "stomach": 1882,
      "beha": 1883,
      "change": 1884,
      "bottom": 1885,
      "imagination": 1886,
      "lifts": 1887,
      "delighted": 1888,
      "dizzy": 1889,
      "ocean": 1890,
      "doub": 1891,
      "welc": 1892,
      "gone": 1893,
      "lay": 1894,
      "##ment": 1895,
      "##oto": 1896,
      "##unch": 1897,
      "sunset": 1898,
      "sleighs": 1899,
      "apologiz": 1900,
      "photo": 1901,
      "##raph": 1902,
      "##ked": 1903,
      "surprise": 1904,
      "baskets": 1905,
      "build": 1906,
      "touch": 1907,
      "baked": 1908,
      "enter": 1909,
      "snee": 1910,
      "partly": 1911,
      "avoid": 1912,
      "speed": 1913,
      "fur": 1914,
      "mind": 1915,
      "##cle": 1916,
      "##iful": 1917,
      "##xed": 1918,
      "##form": 1919,
      "##iny": 1920,
      "seen": 1921,
      "heading": 1922,
      "disco": 1923,
      "##ected": 1924,
      "hills": 1925,
      "cloud": 1926,
      "hops": 1927,
      "beautiful": 1928,
      "discus": 1929,
      "persuad": 1930,
      "empty": 1931,
      "dang": 1932,
      "ic": 1933,
      "oven": 1934,
      "##loo": 1935,
      "##epy": 1936,
      "##ust": 1937,
      "tor": 1938,
      "##att": 1939,
      "##rous": 1940,
      "therefore": 1941,
      "bobs": 1942,
      "arg": 1943,
      "reach": 1944,
      "giving": 1945,
      "sleepy": 1946,
      "##ular": 1947,
      "apologizes": 1948,
      "mean": 1949,
      "cheeks": 1950,
      "kicks": 1951,
      "cact": 1952,
      "fig": 1953,
      "passed": 1954,
      "win": 1955,
      "##uises": 1956,
      "##right": 1957,
      "##onent": 1958,
      "##onog": 1959,
      "##ical": 1960,
      "sever": 1961,
      "alright": 1962,
      "scen": 1963,
      "sailing": 1964,
      "bruises": 1965,
      "bottle": 1966,
      "touching": 1967,
      "unf": 1968,
      "startled": 1969,
      "fingers": 1970,
      "couldn": 1971,
      "phonog": 1972,
      "request": 1973,
      "order": 1974,
      "climbing": 1975,
      "opponent": 1976,
      "##vior": 1977,
      "behavior": 1978,
      "cactus": 1979,
      "phonograph": 1980,
      "numb": 1981,
      "pushes": 1982,
      "tied": 1983,
      "use": 1984,
      "##ife": 1985,
      "once": 1986,
      "chin": 1987,
      "spinning": 1988,
      "point": 1989,
      "##ult": 1990,
      "strongest": 1991,
      "exchange": 1992,
      "scribble": 1993,
      "incl": 1994,
      "stripe": 1995,
      "mistake": 1996,
      "hul": 1997,
      "op": 1998,
      "sign": 1999,
      "unt": 2000,
      "##sh": 2001,
      "##he": 2002,
      "##ible": 2003,
      "##lew": 2004,
      "##ined": 2005,
      "##inion": 2006,
      "frown": 2007,
      "##blem": 2008,
      "most": 2009,
      "worry": 2010,
      "working": 2011,
      "finding": 2012,
      "##bbling": 2013,
      "cleaner": 2014,
      "mumb": 2015,
      "problem": 2016,
      "hurt": 2017,
      "bath": 2018,
      "compliment": 2019,
      "believe": 2020,
      "interested": 2021,
      "since": 2022,
      "second": 2023,
      "hula": 2024,
      "opinion": 2025,
      "ig": 2026,
      "##sform": 2027,
      "##nding": 2028,
      "pot": 2029,
      "##acks": 2030,
      "##ansform": 2031,
      "fists": 2032,
      "everything": 2033,
      "leaning": 2034,
      "true": 2035,
      "transform": 2036,
      "woke": 2037,
      "covering": 2038,
      "cooking": 2039,
      "##sp": 2040,
      "##ple": 2041,
      "##ged": 2042,
      "##uring": 2043,
      "coll": 2044,
      "ass": 2045,
      "sear": 2046,
      "##aining": 2047,
      "ext": 2048,
      "arrow": 2049,
      "wave": 2050,
      "##ggling": 2051,
      "moved": 2052,
      "bump": 2053,
      "times": 2054,
      "crash": 2055,
      "shooting": 2056,
      "invention": 2057,
      "tilts": 2058,
      "begins": 2059,
      "speci": 2060,
      "icy": 2061,
      "tie": 2062,
      "##cret": 2063,
      "stuck": 2064,
      "secret": 2065,
      "herself": 2066,
      "sol": 2067,
      "##ips": 2068,
      "became": 2069,
      "noise": 2070,
      "faster": 2071,
      "passes": 2072,
      "questions": 2073,
      "changes": 2074,
      "hammering": 2075,
      "enjoy": 2076,
      "hungry": 2077,
      "hanging": 2078,
      "several": 2079,
      "gh": 2080,
      "mast": 2081,
      "mention": 2082,
      "stam": 2083,
      "cong": 2084,
      "plant": 2085,
      "forth": 2086,
      "showed": 2087,
      "needs": 2088,
      "breath": 2089,
      "ghost": 2090,
      "master": 2091,
      "aw": 2092,
      "band": 2093,
      "cir": 2094,
      "cross": 2095,
      "due": 2096,
      "page": 2097,
      "sigh": 2098,
      "por": 2099,
      "##ater": 2100,
      "##orts": 2101,
      "cheer": 2102,
      "bathroom": 2103,
      "ap": 2104,
      "crew": 2105,
      "den": 2106,
      "luck": 2107,
      "tap": 2108,
      "##asure": 2109,
      "shown": 2110,
      "##olds": 2111,
      "upside": 2112,
      "treasure": 2113,
      "susp": 2114,
      "##ames": 2115,
      "score": 2116,
      "scream": 2117,
      "painted": 2118,
      "chases": 2119,
      "recog": 2120,
      "requests": 2121,
      "gestures": 2122,
      "maybe": 2123,
      "photos": 2124,
      "recogn": 2125,
      "te": 2126,
      "##vor": 2127,
      "##ats": 2128,
      "##uth": 2129,
      "##ution": 2130,
      "exh": 2131,
      "never": 2132,
      "dist": 2133,
      "##gging": 2134,
      "catching": 2135,
      "truth": 2136,
      "cups": 2137,
      "superhe": 2138,
      "dinner": 2139,
      "confused": 2140,
      "favor": 2141,
      "mini": 2142,
      "balance": 2143,
      "clenches": 2144,
      "superhero": 2145,
      "hal": 2146,
      "lets": 2147,
      "rushing": 2148,
      "##rat": 2149,
      "ste": 2150,
      "cold": 2151,
      "worries": 2152,
      "windows": 2153,
      "hoops": 2154,
      "scene": 2155,
      "until": 2156,
      "congrat": 2157,
      "half": 2158,
      "congratul": 2159,
      "fac": 2160,
      "gard": 2161,
      "rides": 2162,
      "##ail": 2163,
      "##als": 2164,
      "gogg": 2165,
      "neck": 2166,
      "firew": 2167,
      "appeared": 2168,
      "cons": 2169,
      "raise": 2170,
      "magn": 2171,
      "whole": 2172,
      "draws": 2173,
      "##box": 2174,
      "beam": 2175,
      "warm": 2176,
      "knife": 2177,
      "garden": 2178,
      "bunch": 2179,
      "hic": 2180,
      "jail": 2181,
      "sides": 2182,
      "##bles": 2183,
      "##iss": 2184,
      "##utt": 2185,
      "bends": 2186,
      "cond": 2187,
      "fork": 2188,
      "sports": 2189,
      "slides": 2190,
      "stars": 2191,
      "apprec": 2192,
      "anger": 2193,
      "drives": 2194,
      "bubbles": 2195,
      "accep": 2196,
      "hugs": 2197,
      "recognize": 2198,
      "hiccu": 2199,
      "appreci": 2200,
      "pet": 2201,
      "##ction": 2202,
      "##dge": 2203,
      "##inds": 2204,
      "fist": 2205,
      "toys": 2206,
      "##antly": 2207,
      "conn": 2208,
      "answered": 2209,
      "agreed": 2210,
      "wanted": 2211,
      "enters": 2212,
      "compass": 2213,
      "threatening": 2214,
      "danger": 2215,
      "apron": 2216,
      "firewood": 2217,
      "bin": 2218,
      "dange": 2219,
      "fre": 2220,
      "hes": 2221,
      "hot": 2222,
      "hood": 2223,
      "mutt": 2224,
      "pill": 2225,
      "save": 2226,
      "##ud": 2227,
      "##cue": 2228,
      "##mer": 2229,
      "##ten": 2230,
      "##rely": 2231,
      "##asting": 2232,
      "skill": 2233,
      "scan": 2234,
      "words": 2235,
      "dribbling": 2236,
      "against": 2237,
      "offers": 2238,
      "##ocular": 2239,
      "gras": 2240,
      "hopping": 2241,
      "rubbing": 2242,
      "village": 2243,
      "frame": 2244,
      "rescue": 2245,
      "break": 2246,
      "guesses": 2247,
      "sneeze": 2248,
      "number": 2249,
      "special": 2250,
      "binocular": 2251,
      "dangerous": 2252,
      "hesit": 2253,
      "binoculars": 2254,
      "bur": 2255,
      "cream": 2256,
      "flew": 2257,
      "perf": 2258,
      "used": 2259,
      "wing": 2260,
      "##lf": 2261,
      "##ex": 2262,
      "##able": 2263,
      "##med": 2264,
      "##tly": 2265,
      "##ases": 2266,
      "she": 2267,
      "apples": 2268,
      "shake": 2269,
      "sleeps": 2270,
      "decl": 2271,
      "decor": 2272,
      "##riedly": 2273,
      "thrown": 2274,
      "throwing": 2275,
      "hurriedly": 2276,
      "remot": 2277,
      "closely": 2278,
      "colorful": 2279,
      "mask": 2280,
      "understands": 2281,
      "orders": 2282,
      "aiming": 2283,
      "pupp": 2284,
      "control": 2285,
      "discussing": 2286,
      "collap": 2287,
      "add": 2288,
      "furn": 2289,
      "gold": 2290,
      "hidd": 2291,
      "loc": 2292,
      "ri": 2293,
      "##der": 2294,
      "##iture": 2295,
      "##icy": 2296,
      "carry": 2297,
      "clot": 2298,
      "choice": 2299,
      "anx": 2300,
      "hasn": 2301,
      "allow": 2302,
      "reads": 2303,
      "##uct": 2304,
      "rememb": 2305,
      "folded": 2306,
      "heavily": 2307,
      "shoots": 2308,
      "proudly": 2309,
      "perple": 2310,
      "yawning": 2311,
      "yawns": 2312,
      "disappears": 2313,
      "loudly": 2314,
      "mumbles": 2315,
      "searching": 2316,
      "stamps": 2317,
      "freight": 2318,
      "furniture": 2319,
      "golden": 2320,
      "hidden": 2321,
      "perplexed": 2322,
      "lie": 2323,
      "pap": 2324,
      "tiny": 2325,
      "yet": 2326,
      "##ire": 2327,
      "##mely": 2328,
      "##remely": 2329,
      "##iting": 2330,
      "##ntly": 2331,
      "##epad": 2332,
      "juggling": 2333,
      "notepad": 2334,
      "weird": 2335,
      "paws": 2336,
      "prepare": 2337,
      "visits": 2338,
      "desk": 2339,
      "extremely": 2340,
      "accepts": 2341,
      "appreciates": 2342,
      "el": 2343,
      "fill": 2344,
      "fine": 2345,
      "lad": 2346,
      "my": 2347,
      "met": 2348,
      "might": 2349,
      "##use": 2350,
      "##cce": 2351,
      "thick": 2352,
      "thumb": 2353,
      "##aced": 2354,
      "placed": 2355,
      "succe": 2356,
      "arch": 2357,
      "slo": 2358,
      "##entr": 2359,
      "rabb": 2360,
      "fixed": 2361,
      "fallen": 2362,
      "teasing": 2363,
      "followed": 2364,
      "reminds": 2365,
      "missed": 2366,
      "cabinet": 2367,
      "stuffs": 2368,
      "pretends": 2369,
      "concentr": 2370,
      "fails": 2371,
      "counting": 2372,
      "promise": 2373,
      "pract": 2374,
      "argu": 2375,
      "circle": 2376,
      "scanned": 2377,
      "succeed": 2378,
      "rabbit": 2379,
      "lear": 2380,
      "rack": 2381,
      "ve": 2382,
      "##ends": 2383,
      "##ub": 2384,
      "toto": 2385,
      "##ayon": 2386,
      "skate": 2387,
      "upward": 2388,
      "ann": 2389,
      "sledge": 2390,
      "lightening": 2391,
      "chairs": 2392,
      "curiously": 2393,
      "salad": 2394,
      "crayon": 2395,
      "bridge": 2396,
      "introducing": 2397,
      "blowing": 2398,
      "serving": 2399,
      "charms": 2400,
      "crews": 2401,
      "remote": 2402,
      "puppet": 2403,
      "dance": 2404,
      "enc": 2405,
      "elec": 2406,
      "kind": 2407,
      "mid": 2408,
      "push": 2409,
      "tit": 2410,
      "wr": 2411,
      "wide": 2412,
      "poster": 2413,
      "inj": 2414,
      "##iti": 2415,
      "##toise": 2416,
      "flag": 2417,
      "life": 2418,
      "##ffiti": 2419,
      "lights": 2420,
      "snowmen": 2421,
      "cheers": 2422,
      "dives": 2423,
      "##boat": 2424,
      "graffiti": 2425,
      "reluct": 2426,
      "bags": 2427,
      "warning": 2428,
      "shoot": 2429,
      "fighting": 2430,
      "forgive": 2431,
      "correc": 2432,
      "mailbox": 2433,
      "further": 2434,
      "discovers": 2435,
      "tortoise": 2436,
      "paper": 2437,
      "elect": 2438,
      "title": 2439,
      "lifeboat": 2440,
      "hig": 2441,
      "las": 2442,
      "med": 2443,
      "##mmer": 2444,
      "##ition": 2445,
      "ate": 2446,
      "shove": 2447,
      "##ages": 2448,
      "summer": 2449,
      "lands": 2450,
      "seek": 2451,
      "##erent": 2452,
      "starting": 2453,
      "yells": 2454,
      "trains": 2455,
      "glow": 2456,
      "paints": 2457,
      "must": 2458,
      "inter": 2459,
      "explained": 2460,
      "meaning": 2461,
      "tastes": 2462,
      "prepared": 2463,
      "expresses": 2464,
      "hoop": 2465,
      "smells": 2466,
      "different": 2467,
      "doubt": 2468,
      "conduc": 2469,
      "ladder": 2470,
      "higher": 2471,
      "bir": 2472,
      "crying": 2473,
      "fau": 2474,
      "sings": 2475,
      "wet": 2476,
      "winning": 2477,
      "##lt": 2478,
      "##nic": 2479,
      "##ires": 2480,
      "##rance": 2481,
      "##oves": 2482,
      "tow": 2483,
      "##icult": 2484,
      "shy": 2485,
      "##poby": 2486,
      "##post": 2487,
      "picnic": 2488,
      "##ocking": 2489,
      "grad": 2490,
      "entrance": 2491,
      "prepares": 2492,
      "expression": 2493,
      "exchang": 2494,
      "difficult": 2495,
      "burning": 2496,
      "repeated": 2497,
      "denies": 2498,
      "screams": 2499,
      "else": 2500,
      "fault": 2501,
      "ant": 2502,
      "lose": 2503,
      "net": 2504,
      "trou": 2505,
      "vases": 2506,
      "wip": 2507,
      "##hap": 2508,
      "##ded": 2509,
      "##ging": 2510,
      "inqu": 2511,
      "##ence": 2512,
      "##alanch": 2513,
      "suits": 2514,
      "chance": 2515,
      "anim": 2516,
      "alth": 2517,
      "reaches": 2518,
      "living": 2519,
      "darkness": 2520,
      "brand": 2521,
      "drawn": 2522,
      "colors": 2523,
      "dinosaurs": 2524,
      "avalanch": 2525,
      "sinking": 2526,
      "path": 2527,
      "escape": 2528,
      "burned": 2529,
      "figure": 2530,
      "secretly": 2531,
      "distance": 2532,
      "facing": 2533,
      "cloth": 2534,
      "although": 2535,
      "avalanche": 2536,
      "bou": 2537,
      "bus": 2538,
      "dust": 2539,
      "hor": 2540,
      "rushed": 2541,
      "##fort": 2542,
      "pow": 2543,
      "edge": 2544,
      "rods": 2545,
      "stare": 2546,
      "sho": 2547,
      "clon": 2548,
      "##acked": 2549,
      "choo": 2550,
      "ago": 2551,
      "##pering": 2552,
      "keeping": 2553,
      "##oyed": 2554,
      "hop": 2555,
      "##cock": 2556,
      "approached": 2557,
      "stepping": 2558,
      "entering": 2559,
      "baton": 2560,
      "enough": 2561,
      "rescu": 2562,
      "apology": 2563,
      "warns": 2564,
      "shouting": 2565,
      "compliments": 2566,
      "whispering": 2567,
      "gladly": 2568,
      "seeds": 2569,
      "join": 2570,
      "persuade": 2571,
      "mutters": 2572,
      "decoration": 2573,
      "racket": 2574,
      "annoyed": 2575,
      "midst": 2576,
      "grow": 2577,
      "hall": 2578,
      "ind": 2579,
      "iron": 2580,
      "rush": 2581,
      "sway": 2582,
      "wish": 2583,
      "##nce": 2584,
      "##wood": 2585,
      "poles": 2586,
      "##rin": 2587,
      "shot": 2588,
      "##stairs": 2589,
      "##ores": 2590,
      "spring": 2591,
      "somebody": 2592,
      "reaction": 2593,
      "scolds": 2594,
      "##ection": 2595,
      "drive": 2596,
      "blackboard": 2597,
      "sunny": 2598,
      "hardwood": 2599,
      "ruined": 2600,
      "spots": 2601,
      "nodded": 2602,
      "compet": 2603,
      "noticed": 2604,
      "person": 2605,
      "apologizing": 2606,
      "apologized": 2607,
      "goggle": 2608,
      "arguing": 2609,
      "injection": 2610,
      "swaying": 2611,
      "dir": 2612,
      "mus": 2613,
      "pile": 2614,
      "raining": 2615,
      "tears": 2616,
      "##less": 2617,
      "##ables": 2618,
      "##ker": 2619,
      "##zz": 2620,
      "pots": 2621,
      "##ese": 2622,
      "##aring": 2623,
      "covers": 2624,
      "##unately": 2625,
      "such": 2626,
      "cheese": 2627,
      "listens": 2628,
      "meets": 2629,
      "##ledding": 2630,
      "oppos": 2631,
      "wheels": 2632,
      "scarf": 2633,
      "puzz": 2634,
      "##getables": 2635,
      "##loopy": 2636,
      "bobsledding": 2637,
      "crashed": 2638,
      "bandage": 2639,
      "portion": 2640,
      "filled": 2641,
      "vegetables": 2642,
      "encour": 2643,
      "laser": 2644,
      "doubtful": 2645,
      "music": 2646,
      "pies": 2647,
      "sick": 2648,
      "tall": 2649,
      "##sible": 2650,
      "##pri": 2651,
      "##uding": 2652,
      "##ray": 2653,
      "loop": 2654,
      "##eth": 2655,
      "##ised": 2656,
      "##ity": 2657,
      "##leigh": 2658,
      "##ric": 2659,
      "houses": 2660,
      "shines": 2661,
      "##str": 2662,
      "doors": 2663,
      "everybody": 2664,
      "##ized": 2665,
      "wolf": 2666,
      "held": 2667,
      "decei": 2668,
      "dances": 2669,
      "tool": 2670,
      "##thday": 2671,
      "grab": 2672,
      "goalpost": 2673,
      "hurts": 2674,
      "continues": 2675,
      "complains": 2676,
      "means": 2677,
      "climbs": 2678,
      "baseball": 2679,
      "frustr": 2680,
      "perches": 2681,
      "pretend": 2682,
      "safely": 2683,
      "breaks": 2684,
      "promises": 2685,
      "touched": 2686,
      "bobsleigh": 2687,
      "including": 2688,
      "igloo": 2689,
      "transformed": 2690,
      "solution": 2691,
      "collapsed": 2692,
      "learn": 2693,
      "birthday": 2694,
      "repeatedly": 2695,
      "trouble": 2696,
      "##print": 2697,
      "fully": 2698,
      "kid": 2699,
      "la": 2700,
      "match": 2701,
      "nar": 2702,
      "pep": 2703,
      "ring": 2704,
      "var": 2705,
      "##ured": 2706,
      "##ually": 2707,
      "##noon": 2708,
      "##ys": 2709,
      "##dges": 2710,
      "##iant": 2711,
      "##iately": 2712,
      "##my": 2713,
      "##eals": 2714,
      "##ank": 2715,
      "shut": 2716,
      "shore": 2717,
      "##sted": 2718,
      "##austed": 2719,
      "spell": 2720,
      "judges": 2721,
      "world": 2722,
      "afternoon": 2723,
      "cleaned": 2724,
      "laughed": 2725,
      "unhap": 2726,
      "news": 2727,
      "##while": 2728,
      "immed": 2729,
      "bringing": 2730,
      "attention": 2731,
      "minute": 2732,
      "deeply": 2733,
      "doubts": 2734,
      "exhausted": 2735,
      "pillar": 2736,
      "crayons": 2737,
      "correctly": 2738,
      "laid": 2739,
      "narrow": 2740,
      "pepper": 2741,
      "various": 2742,
      "unhappy": 2743,
      "immediately": 2744,
      "hone": 2745,
      "mim": 2746,
      "sy": 2747,
      "sile": 2748,
      "ur": 2749,
      "##vent": 2750,
      "##br": 2751,
      "pos": 2752,
      "pol": 2753,
      "poss": 2754,
      "##ren": 2755,
      "##esting": 2756,
      "##llen": 2757,
      "##itive": 2758,
      "rot": 2759,
      "##enn": 2760,
      "stair": 2761,
      "##iciously": 2762,
      "##ors": 2763,
      "shi": 2764,
      "##stal": 2765,
      "tale": 2766,
      "child": 2767,
      "##ways": 2768,
      "##ently": 2769,
      "dragged": 2770,
      "pointed": 2771,
      "suggesting": 2772,
      "excuse": 2773,
      "##bbed": 2774,
      "defe": 2775,
      "barely": 2776,
      "grabbed": 2777,
      "early": 2778,
      "rolls": 2779,
      "frames": 2780,
      "complet": 2781,
      "beach": 2782,
      "warming": 2783,
      "recall": 2784,
      "amazing": 2785,
      "brightly": 2786,
      "cool": 2787,
      "lifting": 2788,
      "quietly": 2789,
      "failed": 2790,
      "skiing": 2791,
      "crystal": 2792,
      "winks": 2793,
      "medical": 2794,
      "shoes": 2795,
      "choose": 2796,
      "honey": 2797,
      "mimic": 2798,
      "silently": 2799,
      "children": 2800,
      "later": 2801,
      "men": 2802,
      "oh": 2803,
      "rises": 2804,
      "##nores": 2805,
      "##mly": 2806,
      "##field": 2807,
      "##reen": 2808,
      "##ishing": 2809,
      "##eddy": 2810,
      "##itar": 2811,
      "rocket": 2812,
      "snowfield": 2813,
      "witch": 2814,
      "##icing": 2815,
      "card": 2816,
      "##iring": 2817,
      "upstairs": 2818,
      "##elves": 2819,
      "sprin": 2820,
      "screen": 2821,
      "seash": 2822,
      "swor": 2823,
      "dribbles": 2824,
      "helm": 2825,
      "uns": 2826,
      "stronger": 2827,
      "acting": 2828,
      "confess": 2829,
      "expect": 2830,
      "meal": 2831,
      "guitar": 2832,
      "praise": 2833,
      "device": 2834,
      "admiring": 2835,
      "dominoes": 2836,
      "ignores": 2837,
      "enjoys": 2838,
      "petals": 2839,
      "adds": 2840,
      "allows": 2841,
      "electric": 2842,
      "cloning": 2843,
      "rescued": 2844,
      "frustrated": 2845,
      "sprink": 2846,
      "seashore": 2847,
      "dest": 2848,
      "fres": 2849,
      "puck": 2850,
      "tu": 2851,
      "uf": 2852,
      "yum": 2853,
      "##pell": 2854,
      "##cks": 2855,
      "##cent": 2856,
      "##gan": 2857,
      "pose": 2858,
      "##ooth": 2859,
      "##rig": 2860,
      "begging": 2861,
      "smooth": 2862,
      "##apped": 2863,
      "upper": 2864,
      "##aged": 2865,
      "themsel": 2866,
      "everywhere": 2867,
      "saved": 2868,
      "trapped": 2869,
      "drawings": 2870,
      "bites": 2871,
      "surrounding": 2872,
      "propell": 2873,
      "organ": 2874,
      "walked": 2875,
      "acts": 2876,
      "remains": 2877,
      "crater": 2878,
      "receive": 2879,
      "accept": 2880,
      "attach": 2881,
      "laying": 2882,
      "steer": 2883,
      "grasping": 2884,
      "declines": 2885,
      "location": 2886,
      "conducting": 2887,
      "wiping": 2888,
      "hopes": 2889,
      "fresh": 2890,
      "tube": 2891,
      "ufo": 2892,
      "yummy": 2893,
      "themselves": 2894,
      "propeller": 2895,
      "borrow": 2896,
      "ce": 2897,
      "eas": 2898,
      "fact": 2899,
      "lead": 2900,
      "late": 2901,
      "tip": 2902,
      "##ier": 2903,
      "##ngth": 2904,
      "thread": 2905,
      "edges": 2906,
      "##rily": 2907,
      "stir": 2908,
      "stra": 2909,
      "##ically": 2910,
      "seat": 2911,
      "smiled": 2912,
      "chick": 2913,
      "chase": 2914,
      "spray": 2915,
      "forec": 2916,
      "nobody": 2917,
      "appear": 2918,
      "##astic": 2919,
      "saving": 2920,
      "rev": 2921,
      "traces": 2922,
      "##ulp": 2923,
      "whose": 2924,
      "foc": 2925,
      "shoulders": 2926,
      "##izing": 2927,
      "watering": 2928,
      "diving": 2929,
      "boots": 2930,
      "bait": 2931,
      "##ossible": 2932,
      "waits": 2933,
      "hurrying": 2934,
      "action": 2935,
      "folding": 2936,
      "guns": 2937,
      "reply": 2938,
      "normally": 2939,
      "plaster": 2940,
      "implies": 2941,
      "impossible": 2942,
      "thankful": 2943,
      "concer": 2944,
      "cheek": 2945,
      "successfully": 2946,
      "welcom": 2947,
      "lays": 2948,
      "meanwhile": 2949,
      "frowns": 2950,
      "bumped": 2951,
      "superheroes": 2952,
      "magnet": 2953,
      "connected": 2954,
      "anxious": 2955,
      "gradation": 2956,
      "possible": 2957,
      "completely": 2958,
      "dus": 2959,
      "king": 2960,
      "mil": 2961,
      "ner": 2962,
      "us": 2963,
      "##pected": 2964,
      "##mical": 2965,
      "##road": 2966,
      "##ert": 2967,
      "##ists": 2968,
      "##iness": 2969,
      "##eal": 2970,
      "str": 2971,
      "withered": 2972,
      "##acking": 2973,
      "##urs": 2974,
      "blames": 2975,
      "flick": 2976,
      "choc": 2977,
      "always": 2978,
      "spins": 2979,
      "##usion": 2980,
      "disag": 2981,
      "##ects": 2982,
      "##gged": 2983,
      "finishing": 2984,
      "##perly": 2985,
      "##ations": 2986,
      "fixes": 2987,
      "hugged": 2988,
      "chemical": 2989,
      "unex": 2990,
      "happens": 2991,
      "properly": 2992,
      "strangely": 2993,
      "act": 2994,
      "resemb": 2995,
      "biggest": 2996,
      "reflec": 2997,
      "access": 2998,
      "##ively": 2999,
      "believes": 3000,
      "balloons": 3001,
      "scary": 3002,
      "whisp": 3003,
      "evening": 3004,
      "##olate": 3005,
      "charact": 3006,
      "castle": 3007,
      "torn": 3008,
      "temp": 3009,
      "thumbs": 3010,
      "antenn": 3011,
      "hallway": 3012,
      "dusk": 3013,
      "milk": 3014,
      "chocolate": 3015,
      "unexpected": 3016,
      "antenna": 3017,
      "aris": 3018,
      "bicy": 3019,
      "cal": 3020,
      "tur": 3021,
      "##ship": 3022,
      "##end": 3023,
      "##akes": 3024,
      "##vas": 3025,
      "##ban": 3026,
      "##roat": 3027,
      "throat": 3028,
      "##ator": 3029,
      "flound": 3030,
      "behave": 3031,
      "sullen": 3032,
      "spur": 3033,
      "exper": 3034,
      "landing": 3035,
      "canvas": 3036,
      "sciss": 3037,
      "beds": 3038,
      "giant": 3039,
      "blacken": 3040,
      "explo": 3041,
      "airship": 3042,
      "huh": 3043,
      "##bber": 3044,
      "propo": 3045,
      "prince": 3046,
      "hitting": 3047,
      "rubber": 3048,
      "apologize": 3049,
      "lower": 3050,
      "##ifying": 3051,
      "received": 3052,
      "knocks": 3053,
      "pretending": 3054,
      "confidence": 3055,
      "whisk": 3056,
      "repeats": 3057,
      "building": 3058,
      "transformer": 3059,
      "taps": 3060,
      "suspicious": 3061,
      "magnifying": 3062,
      "burst": 3063,
      "perfect": 3064,
      "skateboard": 3065,
      "writing": 3066,
      "reluctant": 3067,
      "bounc": 3068,
      "opposite": 3069,
      "bobsleighs": 3070,
      "police": 3071,
      "sword": 3072,
      "bicycle": 3073,
      "turban": 3074,
      "able": 3075,
      "bake": 3076,
      "cres": 3077,
      "ech": 3078,
      "mi": 3079,
      "mur": 3080,
      "sack": 3081,
      "##ph": 3082,
      "##pet": 3083,
      "##muring": 3084,
      "##obe": 3085,
      "##gress": 3086,
      "##fri": 3087,
      "isn": 3088,
      "##art": 3089,
      "pobyfri": 3090,
      "shiny": 3091,
      "carpet": 3092,
      "##htub": 3093,
      "flute": 3094,
      "length": 3095,
      "twink": 3096,
      "leans": 3097,
      "globe": 3098,
      "towards": 3099,
      "lighting": 3100,
      "sadly": 3101,
      "quite": 3102,
      "sunsh": 3103,
      "hero": 3104,
      "salute": 3105,
      "movement": 3106,
      "bathtub": 3107,
      "farew": 3108,
      "agreeing": 3109,
      "though": 3110,
      "misses": 3111,
      "preparing": 3112,
      "realized": 3113,
      "palm": 3114,
      "cooks": 3115,
      "interesting": 3116,
      "concl": 3117,
      "seriously": 3118,
      "forgot": 3119,
      "gesture": 3120,
      "disappeared": 3121,
      "escapes": 3122,
      "##rup": 3123,
      "welcome": 3124,
      "builds": 3125,
      "argum": 3126,
      "exhal": 3127,
      "consid": 3128,
      "burnt": 3129,
      "shovel": 3130,
      "tower": 3131,
      "exchanged": 3132,
      "animals": 3133,
      "puzzled": 3134,
      "shivers": 3135,
      "destination": 3136,
      "attached": 3137,
      "crescent": 3138,
      "echo": 3139,
      "murmuring": 3140,
      "pobyfriends": 3141,
      "twinkles": 3142,
      "sunshine": 3143,
      "farewell": 3144,
      "cur": 3145,
      "gently": 3146,
      "love": 3147,
      "rap": 3148,
      "size": 3149,
      "ter": 3150,
      "tin": 3151,
      "won": 3152,
      "wires": 3153,
      "##iver": 3154,
      "##mo": 3155,
      "##tally": 3156,
      "##fts": 3157,
      "##fied": 3158,
      "##jo": 3159,
      "totally": 3160,
      "##erget": 3161,
      "##isting": 3162,
      "##edded": 3163,
      "##lliant": 3164,
      "onto": 3165,
      "##itud": 3166,
      "##ril": 3167,
      "##rified": 3168,
      "##ens": 3169,
      "##enting": 3170,
      "stacked": 3171,
      "##idly": 3172,
      "##alled": 3173,
      "##ices": 3174,
      "blushes": 3175,
      "ast": 3176,
      "##stril": 3177,
      "flied": 3178,
      "##amed": 3179,
      "surprises": 3180,
      "spicy": 3181,
      "waking": 3182,
      "slip": 3183,
      "triang": 3184,
      "nostril": 3185,
      "gifts": 3186,
      "angrily": 3187,
      "works": 3188,
      "gotten": 3189,
      "explan": 3190,
      "trace": 3191,
      "float": 3192,
      "embedded": 3193,
      "helped": 3194,
      "rela": 3195,
      "##ormance": 3196,
      "rule": 3197,
      "continue": 3198,
      "memo": 3199,
      "energet": 3200,
      "brilliant": 3201,
      "badly": 3202,
      "web": 3203,
      "recip": 3204,
      "staying": 3205,
      "noticing": 3206,
      "pleasantly": 3207,
      "installed": 3208,
      "rocky": 3209,
      "kicking": 3210,
      "messy": 3211,
      "corner": 3212,
      "guessed": 3213,
      "confidently": 3214,
      "welcomes": 3215,
      "unfort": 3216,
      "inclined": 3217,
      "hiccup": 3218,
      "hesitate": 3219,
      "hesitates": 3220,
      "performance": 3221,
      "remembers": 3222,
      "slop": 3223,
      "concentrating": 3224,
      "difficulties": 3225,
      "index": 3226,
      "encourage": 3227,
      "narrows": 3228,
      "rapidly": 3229,
      "##itude": 3230,
      "triangle": 3231,
      "memory": 3232,
      "energetic": 3233,
      "cries": 3234,
      "dig": 3235,
      "dash": 3236,
      "fear": 3237,
      "fant": 3238,
      "past": 3239,
      "rad": 3240,
      "set": 3241,
      "ug": 3242,
      "##ey": 3243,
      "##ew": 3244,
      "##eor": 3245,
      "##iry": 3246,
      "##ture": 3247,
      "##bat": 3248,
      "##zing": 3249,
      "pours": 3250,
      "town": 3251,
      "##ision": 3252,
      "##lling": 3253,
      "ins": 3254,
      "##ouse": 3255,
      "##ither": 3256,
      "##lem": 3257,
      "##utch": 3258,
      "whist": 3259,
      "##urred": 3260,
      "shock": 3261,
      "blurred": 3262,
      "##otion": 3263,
      "blueprint": 3264,
      "##iles": 3265,
      "comfort": 3266,
      "boasting": 3267,
      "alike": 3268,
      "spoon": 3269,
      "live": 3270,
      "sculp": 3271,
      "trick": 3272,
      "windy": 3273,
      "mop": 3274,
      "##ounded": 3275,
      "overt": 3276,
      "offering": 3277,
      "thanking": 3278,
      "decision": 3279,
      "broom": 3280,
      "##ancing": 3281,
      "speaker": 3282,
      "friendly": 3283,
      "result": 3284,
      "crutch": 3285,
      "presents": 3286,
      "plead": 3287,
      "complem": 3288,
      "mufflers": 3289,
      "raised": 3290,
      "serves": 3291,
      "smelling": 3292,
      "pats": 3293,
      "balancing": 3294,
      "sneezing": 3295,
      "avoids": 3296,
      "discover": 3297,
      "awful": 3298,
      "suspiciously": 3299,
      "miniat": 3300,
      "congratulations": 3301,
      "meteor": 3302,
      "defeat": 3303,
      "stirring": 3304,
      "straight": 3305,
      "nerv": 3306,
      "accessing": 3307,
      "whispers": 3308,
      "proposes": 3309,
      "fantastic": 3310,
      "ugly": 3311,
      "sculpture": 3312,
      "af": 3313,
      "fue": 3314,
      "gaz": 3315,
      "kis": 3316,
      "mouse": 3317,
      "obs": 3318,
      "vi": 3319,
      "vie": 3320,
      "##ssing": 3321,
      "##ump": 3322,
      "##aim": 3323,
      "thie": 3324,
      "tossing": 3325,
      "shame": 3326,
      "shelves": 3327,
      "blocked": 3328,
      "itself": 3329,
      "claim": 3330,
      "##unk": 3331,
      "combat": 3332,
      "suit": 3333,
      "bored": 3334,
      "player": 3335,
      "scatt": 3336,
      "##awl": 3337,
      "##raid": 3338,
      "##mbol": 3339,
      "rejo": 3340,
      "trust": 3341,
      "trunk": 3342,
      "answering": 3343,
      "##bbled": 3344,
      "sunlight": 3345,
      "unc": 3346,
      "baking": 3347,
      "foods": 3348,
      "relief": 3349,
      "relieve": 3350,
      "praised": 3351,
      "perm": 3352,
      "frighten": 3353,
      "stonew": 3354,
      "escaping": 3355,
      "persuades": 3356,
      "sheet": 3357,
      "clothes": 3358,
      "dusting": 3359,
      "symbol": 3360,
      "actually": 3361,
      "calm": 3362,
      "floundering": 3363,
      "unfortunately": 3364,
      "afraid": 3365,
      "fuel": 3366,
      "obser": 3367,
      "view": 3368,
      "rejoicing": 3369,
      "cage": 3370,
      "em": 3371,
      "egg": 3372,
      "law": 3373,
      "lips": 3374,
      "rain": 3375,
      "sight": 3376,
      "sim": 3377,
      "satisf": 3378,
      "vo": 3379,
      "wloopy": 3380,
      "##del": 3381,
      "##ders": 3382,
      "##wning": 3383,
      "##mend": 3384,
      "##gat": 3385,
      "pokes": 3386,
      "##itting": 3387,
      "##ano": 3388,
      "frowning": 3389,
      "shook": 3390,
      "carries": 3391,
      "##hering": 3392,
      "seats": 3393,
      "flatt": 3394,
      "##agon": 3395,
      "art": 3396,
      "slap": 3397,
      "wash": 3398,
      "negat": 3399,
      "reaching": 3400,
      "aggress": 3401,
      "leers": 3402,
      "##ecting": 3403,
      "model": 3404,
      "willing": 3405,
      "##ulated": 3406,
      "bothering": 3407,
      "nearby": 3408,
      "##tlecock": 3409,
      "broke": 3410,
      "tease": 3411,
      "intru": 3412,
      "remain": 3413,
      "complaining": 3414,
      "plank": 3415,
      "worked": 3416,
      "snacks": 3417,
      "longer": 3418,
      "knocking": 3419,
      "posts": 3420,
      "invit": 3421,
      "weathercock": 3422,
      "breathes": 3423,
      "porch": 3424,
      "teeth": 3425,
      "located": 3426,
      "ribbing": 3427,
      "remembered": 3428,
      "slope": 3429,
      "busy": 3430,
      "dirty": 3431,
      "deceive": 3432,
      "kids": 3433,
      "shuttlecock": 3434,
      "urged": 3435,
      "lawn": 3436,
      "wloopye": 3437,
      "intruders": 3438,
      "bent": 3439,
      "drown": 3440,
      "gri": 3441,
      "gad": 3442,
      "loves": 3443,
      "mar": 3444,
      "oper": 3445,
      "pun": 3446,
      "ten": 3447,
      "tightly": 3448,
      "vers": 3449,
      "yar": 3450,
      "##ending": 3451,
      "##ored": 3452,
      "##ary": 3453,
      "##ath": 3454,
      "##ato": 3455,
      "##atus": 3456,
      "##leph": 3457,
      "##inks": 3458,
      "stood": 3459,
      "state": 3460,
      "stru": 3461,
      "status": 3462,
      "handing": 3463,
      "shine": 3464,
      "coast": 3465,
      "tongue": 3466,
      "ash": 3467,
      "aloud": 3468,
      "cooked": 3469,
      "players": 3470,
      "##atched": 3471,
      "##entif": 3472,
      "##antation": 3473,
      "libr": 3474,
      "trip": 3475,
      "##mbling": 3476,
      "glanc": 3477,
      "boats": 3478,
      "buried": 3479,
      "purpose": 3480,
      "quiz": 3481,
      "hugging": 3482,
      "arriving": 3483,
      "dive": 3484,
      "armored": 3485,
      "intending": 3486,
      "happening": 3487,
      "prize": 3488,
      "entered": 3489,
      "bats": 3490,
      "mountainto": 3491,
      "imagine": 3492,
      "needle": 3493,
      "funny": 3494,
      "visited": 3495,
      "stumbling": 3496,
      "snea": 3497,
      "replies": 3498,
      "meeting": 3499,
      "climbed": 3500,
      "fooled": 3501,
      "incantation": 3502,
      "greeting": 3503,
      "tomato": 3504,
      "begin": 3505,
      "admire": 3506,
      "patting": 3507,
      "prank": 3508,
      "successes": 3509,
      "figures": 3510,
      "mumbling": 3511,
      "sighs": 3512,
      "deny": 3513,
      "distr": 3514,
      "goggles": 3515,
      "consents": 3516,
      "pillow": 3517,
      "concentrate": 3518,
      "practice": 3519,
      "reluctantly": 3520,
      "glowing": 3521,
      "interrup": 3522,
      "inquires": 3523,
      "growing": 3524,
      "competitive": 3525,
      "position": 3526,
      "puckers": 3527,
      "smoothly": 3528,
      "focuses": 3529,
      "welcomed": 3530,
      "argument": 3531,
      "explanation": 3532,
      "complements": 3533,
      "gadget": 3534,
      "operate": 3535,
      "yarn": 3536,
      "library": 3537,
      "bid": 3538,
      "blew": 3539,
      "dress": 3540,
      "dough": 3541,
      "eag": 3542,
      "eight": 3543,
      "kiss": 3544,
      "los": 3545,
      "pe": 3546,
      "peep": 3547,
      "teddy": 3548,
      "yest": 3549,
      "##cile": 3550,
      "##cep": 3551,
      "##ctor": 3552,
      "##mines": 3553,
      "##vo": 3554,
      "##face": 3555,
      "pop": 3556,
      "##oomed": 3557,
      "##erday": 3558,
      "##erator": 3559,
      "##omfort": 3560,
      "##oncile": 3561,
      "##asts": 3562,
      "thatpoby": 3563,
      "##icip": 3564,
      "aside": 3565,
      "##ched": 3566,
      "chose": 3567,
      "doctor": 3568,
      "neither": 3569,
      "##assment": 3570,
      "##ghs": 3571,
      "blackened": 3572,
      "gloves": 3573,
      "caution": 3574,
      "magical": 3575,
      "exciting": 3576,
      "offer": 3577,
      "fog": 3578,
      "coughs": 3579,
      "breads": 3580,
      "cleans": 3581,
      "cheering": 3582,
      "contains": 3583,
      "surface": 3584,
      "unw": 3585,
      "univer": 3586,
      "embarrassment": 3587,
      "your": 3588,
      "careless": 3589,
      "swims": 3590,
      "faking": 3591,
      "imagining": 3592,
      "wondered": 3593,
      "lowering": 3594,
      "gigg": 3595,
      "expected": 3596,
      "planning": 3597,
      "guys": 3598,
      "refused": 3599,
      "refrig": 3600,
      "reconcile": 3601,
      "invite": 3602,
      "candle": 3603,
      "tidy": 3604,
      "impressed": 3605,
      "aims": 3606,
      "tilting": 3607,
      "determines": 3608,
      "disappear": 3609,
      "beauty": 3610,
      "returned": 3611,
      "discuss": 3612,
      "##atters": 3613,
      "unfolds": 3614,
      "extends": 3615,
      "crossroad": 3616,
      "congratulating": 3617,
      "petal": 3618,
      "##udes": 3619,
      "intercep": 3620,
      "towel": 3621,
      "inquiry": 3622,
      "powerf": 3623,
      "talent": 3624,
      "unsatisfied": 3625,
      "organizing": 3626,
      "easily": 3627,
      "leading": 3628,
      "forecast": 3629,
      "straw": 3630,
      "flickering": 3631,
      "disagree": 3632,
      "resembling": 3633,
      "exploded": 3634,
      "astounded": 3635,
      "relaxed": 3636,
      "recipe": 3637,
      "overtakes": 3638,
      "miniature": 3639,
      "gaze": 3640,
      "kisses": 3641,
      "thief": 3642,
      "uncomfort": 3643,
      "eager": 3644,
      "loses": 3645,
      "peeping": 3646,
      "yesterday": 3647,
      "##icipates": 3648,
      "universe": 3649,
      "carelessness": 3650,
      "refrigerator": 3651,
      "uncomfortable": 3652,
      "aid": 3653,
      "cre": 3654,
      "dub": 3655,
      "ends": 3656,
      "gas": 3657,
      "homes": 3658,
      "ing": 3659,
      "motion": 3660,
      "our": 3661,
      "pushed": 3662,
      "si": 3663,
      "tumb": 3664,
      "uses": 3665,
      "vol": 3666,
      "vert": 3667,
      "##under": 3668,
      "##tunately": 3669,
      "##races": 3670,
      "##nded": 3671,
      "polling": 3672,
      "##atur": 3673,
      "roses": 3674,
      "steth": 3675,
      "##anches": 3676,
      "##redien": 3677,
      "blushed": 3678,
      "blocking": 3679,
      "##sters": 3680,
      "self": 3681,
      "##iled": 3682,
      "##elled": 3683,
      "flips": 3684,
      "##eler": 3685,
      "fortunately": 3686,
      "sub": 3687,
      "alar": 3688,
      "landed": 3689,
      "slice": 3690,
      "liqu": 3691,
      "appl": 3692,
      "dragging": 3693,
      "monsters": 3694,
      "picking": 3695,
      "branches": 3696,
      "yelling": 3697,
      "rele": 3698,
      "##ults": 3699,
      "excuses": 3700,
      "hum": 3701,
      "deed": 3702,
      "embraces": 3703,
      "hardly": 3704,
      "bets": 3705,
      "##oscope": 3706,
      "prot": 3707,
      "storybook": 3708,
      "memb": 3709,
      "respo": 3710,
      "results": 3711,
      "confir": 3712,
      "function": 3713,
      "acceler": 3714,
      "drop": 3715,
      "attack": 3716,
      "scars": 3717,
      "clenching": 3718,
      "joins": 3719,
      "assured": 3720,
      "searches": 3721,
      "awake": 3722,
      "hiccups": 3723,
      "hiccuping": 3724,
      "anxiously": 3725,
      "animal": 3726,
      "power": 3727,
      "wishes": 3728,
      "deceived": 3729,
      "rotates": 3730,
      "mimicking": 3731,
      "reflected": 3732,
      "paste": 3733,
      "stonewall": 3734,
      "ingredien": 3735,
      "tumbles": 3736,
      "stethoscope": 3737,
      "liquid": 3738,
      "assuredly": 3739,
      "ingredients": 3740,
      "bawl": 3741,
      "during": 3742,
      "event": 3743,
      "lunch": 3744,
      "mood": 3745,
      "pen": 3746,
      "rise": 3747,
      "tying": 3748,
      "wea": 3749,
      "##ler": 3750,
      "##away": 3751,
      "##do": 3752,
      "##bum": 3753,
      "##fast": 3754,
      "those": 3755,
      "##ars": 3756,
      "##lebr": 3757,
      "stared": 3758,
      "##uting": 3759,
      "##vel": 3760,
      "##venge": 3761,
      "##ighing": 3762,
      "##oring": 3763,
      "##ado": 3764,
      "##ainer": 3765,
      "tagg": 3766,
      "suff": 3767,
      "album": 3768,
      "##ckoo": 3769,
      "runaway": 3770,
      "clearing": 3771,
      "drum": 3772,
      "screw": 3773,
      "scare": 3774,
      "overdo": 3775,
      "revenge": 3776,
      "trump": 3777,
      "final": 3778,
      "##perately": 3779,
      "cuckoo": 3780,
      "scratched": 3781,
      "container": 3782,
      "bowel": 3783,
      "invent": 3784,
      "complimenting": 3785,
      "blows": 3786,
      "scribbled": 3787,
      "counts": 3788,
      "desperately": 3789,
      "circ": 3790,
      "screaming": 3791,
      "favorite": 3792,
      "breakfast": 3793,
      "decline": 3794,
      "succeeds": 3795,
      "horse": 3796,
      "positive": 3797,
      "ceiling": 3798,
      "celebr": 3799,
      "characters": 3800,
      "tornado": 3801,
      "arise": 3802,
      "experim": 3803,
      "perfectly": 3804,
      "shameful": 3805,
      "aggressively": 3806,
      "tagger": 3807,
      "trumpet": 3808,
      "ach": 3809,
      "amb": 3810,
      "bushes": 3811,
      "backs": 3812,
      "bars": 3813,
      "cra": 3814,
      "drow": 3815,
      "doomed": 3816,
      "eleph": 3817,
      "fu": 3818,
      "grou": 3819,
      "hate": 3820,
      "jew": 3821,
      "naught": 3822,
      "orig": 3823,
      "pea": 3824,
      "park": 3825,
      "rages": 3826,
      "tun": 3827,
      "vig": 3828,
      "wins": 3829,
      "wrap": 3830,
      "wagon": 3831,
      "##low": 3832,
      "##luck": 3833,
      "##nel": 3834,
      "##cher": 3835,
      "##down": 3836,
      "##wed": 3837,
      "##ter": 3838,
      "##tering": 3839,
      "##rce": 3840,
      "##breat": 3841,
      "##belt": 3842,
      "##flow": 3843,
      "##que": 3844,
      "##ngu": 3845,
      "threw": 3846,
      "third": 3847,
      "popped": 3848,
      "poured": 3849,
      "##atitude": 3850,
      "##lled": 3851,
      "##lley": 3852,
      "pobybreat": 3853,
      "##itten": 3854,
      "##ittering": 3855,
      "##rious": 3856,
      "##ayed": 3857,
      "stun": 3858,
      "harass": 3859,
      "##acing": 3860,
      "##ashing": 3861,
      "##asion": 3862,
      "##verely": 3863,
      "##anks": 3864,
      "whom": 3865,
      "bever": 3866,
      "##iculated": 3867,
      "handed": 3868,
      "handling": 3869,
      "cope": 3870,
      "skis": 3871,
      "smashing": 3872,
      "severely": 3873,
      "header": 3874,
      "god": 3875,
      "taken": 3876,
      "tables": 3877,
      "commend": 3878,
      "treat": 3879,
      "tremb": 3880,
      "form": 3881,
      "chatters": 3882,
      "##erside": 3883,
      "jugg": 3884,
      "exam": 3885,
      "##ieves": 3886,
      "##ache": 3887,
      "seeking": 3888,
      "neat": 3889,
      "##place": 3890,
      "conife": 3891,
      "darkened": 3892,
      "waterside": 3893,
      "##xture": 3894,
      "reg": 3895,
      "tracing": 3896,
      "glance": 3897,
      "glittering": 3898,
      "##ulance": 3899,
      "excite": 3900,
      "single": 3901,
      "floats": 3902,
      "coughing": 3903,
      "sofas": 3904,
      "identif": 3905,
      "##ishment": 3906,
      "sunflow": 3907,
      "eaten": 3908,
      "anyway": 3909,
      "gratitude": 3910,
      "listened": 3911,
      "wanders": 3912,
      "wandering": 3913,
      "survi": 3914,
      "unluck": 3915,
      "holes": 3916,
      "related": 3917,
      "prods": 3918,
      "source": 3919,
      "primly": 3920,
      "firmly": 3921,
      "questionable": 3922,
      "expressed": 3923,
      "misunder": 3924,
      "meals": 3925,
      "panic": 3926,
      "changing": 3927,
      "ordered": 3928,
      "believing": 3929,
      "scribbles": 3930,
      "tilted": 3931,
      "##ronic": 3932,
      "footprint": 3933,
      "fireplace": 3934,
      "avoided": 3935,
      "countdown": 3936,
      "admit": 3937,
      "corn": 3938,
      "persuasion": 3939,
      "returns": 3940,
      "prayed": 3941,
      "controls": 3942,
      "breathing": 3943,
      "specif": 3944,
      "persuading": 3945,
      "dangling": 3946,
      "scenery": 3947,
      "requested": 3948,
      "numbers": 3949,
      "specially": 3950,
      "mentioned": 3951,
      "planted": 3952,
      "steers": 3953,
      "connecting": 3954,
      "muttering": 3955,
      "succeeded": 3956,
      "written": 3957,
      "electronic": 3958,
      "gradually": 3959,
      "anticipates": 3960,
      "horrified": 3961,
      "urg": 3962,
      "expectation": 3963,
      "sprinkler": 3964,
      "seatbelt": 3965,
      "sprayer": 3966,
      "character": 3967,
      "spurt": 3968,
      "spurting": 3969,
      "scissor": 3970,
      "scissors": 3971,
      "bursting": 3972,
      "bounces": 3973,
      "mixture": 3974,
      "lengthened": 3975,
      "concludes": 3976,
      "considering": 3977,
      "volley": 3978,
      "articulated": 3979,
      "slaps": 3980,
      "negatively": 3981,
      "invites": 3982,
      "grilled": 3983,
      "punishment": 3984,
      "ashamed": 3985,
      "pengu": 3986,
      "creates": 3987,
      "achieves": 3988,
      "ambulance": 3989,
      "backside": 3990,
      "crab": 3991,
      "elephant": 3992,
      "furious": 3993,
      "group": 3994,
      "jewel": 3995,
      "naughty": 3996,
      "origin": 3997,
      "tunnel": 3998,
      "wrapped": 3999,
      "pobybreath": 4000,
      "stunned": 4001,
      "harassing": 4002,
      "beverages": 4003,
      "trembles": 4004,
      "coniferous": 4005,
      "excitement": 4006,
      "identifies": 4007,
      "sunflower": 4008,
      "unlucky": 4009,
      "misunderstand": 4010,
      "footprints": 4011,
      "boring": 4012,
      "cau": 4013,
      "cent": 4014,
      "cush": 4015,
      "cert": 4016,
      "casts": 4017,
      "drew": 4018,
      "free": 4019,
      "gen": 4020,
      "gear": 4021,
      "hid": 4022,
      "kit": 4023,
      "led": 4024,
      "lone": 4025,
      "lens": 4026,
      "pressed": 4027,
      "piling": 4028,
      "piles": 4029,
      "sore": 4030,
      "squ": 4031,
      "tpoby": 4032,
      "##su": 4033,
      "##ung": 4034,
      "##uit": 4035,
      "##cri": 4036,
      "##cel": 4037,
      "##cano": 4038,
      "##hea": 4039,
      "##de": 4040,
      "##wise": 4041,
      "##ius": 4042,
      "##ters": 4043,
      "##ob": 4044,
      "##just": 4045,
      "toil": 4046,
      "##atting": 4047,
      "area": 4048,
      "##ands": 4049,
      "##ense": 4050,
      "stake": 4051,
      "stinks": 4052,
      "##acted": 4053,
      "##onents": 4054,
      "##utes": 4055,
      "##iced": 4056,
      "coal": 4057,
      "skips": 4058,
      "##olded": 4059,
      "sevent": 4060,
      "##ility": 4061,
      "sometim": 4062,
      "cling": 4063,
      "clash": 4064,
      "places": 4065,
      "tag": 4066,
      "force": 4067,
      "##illing": 4068,
      "downward": 4069,
      "chatting": 4070,
      "##ckets": 4071,
      "spo": 4072,
      "spite": 4073,
      "spoke": 4074,
      "backp": 4075,
      "slid": 4076,
      "slips": 4077,
      "##ipping": 4078,
      "cancel": 4079,
      "##mpath": 4080,
      "scold": 4081,
      "male": 4082,
      "tricks": 4083,
      "stopping": 4084,
      "angle": 4085,
      "brushes": 4086,
      "diarr": 4087,
      "contact": 4088,
      "spacesuit": 4089,
      "intense": 4090,
      "helps": 4091,
      "harder": 4092,
      "lamps": 4093,
      "delusion": 4094,
      "provo": 4095,
      "salts": 4096,
      "##sterious": 4097,
      "ruining": 4098,
      "entire": 4099,
      "resists": 4100,
      "complain": 4101,
      "brick": 4102,
      "waring": 4103,
      "miss": 4104,
      "plans": 4105,
      "guide": 4106,
      "depart": 4107,
      "please": 4108,
      "components": 4109,
      "pins": 4110,
      "accum": 4111,
      "introduced": 4112,
      "palms": 4113,
      "belt": 4114,
      "knitting": 4115,
      "knob": 4116,
      "surely": 4117,
      "checking": 4118,
      "expressing": 4119,
      "checked": 4120,
      "adv": 4121,
      "adjust": 4122,
      "farther": 4123,
      "descri": 4124,
      "hanged": 4125,
      "admits": 4126,
      "seconds": 4127,
      "reached": 4128,
      "figuring": 4129,
      "unfair": 4130,
      "unfolded": 4131,
      "assures": 4132,
      "solve": 4133,
      "mentions": 4134,
      "crossed": 4135,
      "lucky": 4136,
      "tapping": 4137,
      "##ission": 4138,
      "condition": 4139,
      "connect": 4140,
      "grasps": 4141,
      "decorated": 4142,
      "allowed": 4143,
      "mysterious": 4144,
      "practiced": 4145,
      "shovels": 4146,
      "dirts": 4147,
      "puzzle": 4148,
      "toolbox": 4149,
      "sympath": 4150,
      "mimics": 4151,
      "leads": 4152,
      "spraying": 4153,
      "appearance": 4154,
      "reveals": 4155,
      "##usions": 4156,
      "arising": 4157,
      "experien": 4158,
      "bounced": 4159,
      "conclusions": 4160,
      "considers": 4161,
      "farewells": 4162,
      "digs": 4163,
      "radi": 4164,
      "whistle": 4165,
      "nervous": 4166,
      "permission": 4167,
      "version": 4168,
      "struggling": 4169,
      "glances": 4170,
      "distracted": 4171,
      "unwilling": 4172,
      "disappearing": 4173,
      "intercepted": 4174,
      "powerful": 4175,
      "volcano": 4176,
      "confirm": 4177,
      "causing": 4178,
      "center": 4179,
      "cushion": 4180,
      "certain": 4181,
      "genius": 4182,
      "lonely": 4183,
      "toilet": 4184,
      "sometimes": 4185,
      "forcefully": 4186,
      "diarrhea": 4187,
      "provoking": 4188,
      "cred": 4189,
      "crow": 4190,
      "city": 4191,
      "dam": 4192,
      "deal": 4193,
      "fair": 4194,
      "fidd": 4195,
      "flec": 4196,
      "hided": 4197,
      "jeal": 4198,
      "lo": 4199,
      "locked": 4200,
      "named": 4201,
      "packed": 4202,
      "packing": 4203,
      "ris": 4204,
      "rid": 4205,
      "sink": 4206,
      "tear": 4207,
      "tasting": 4208,
      "zig": 4209,
      "##satisfied": 4210,
      "##pre": 4211,
      "##uid": 4212,
      "##ne": 4213,
      "##ial": 4214,
      "##tain": 4215,
      "##rse": 4216,
      "##ram": 4217,
      "##ole": 4218,
      "##gram": 4219,
      "##zag": 4220,
      "thru": 4221,
      "##rees": 4222,
      "##ller": 4223,
      "##itates": 4224,
      "rocks": 4225,
      "storm": 4226,
      "##asing": 4227,
      "whir": 4228,
      "bended": 4229,
      "##icine": 4230,
      "handles": 4231,
      "##orms": 4232,
      "shed": 4233,
      "shall": 4234,
      "shir": 4235,
      "shelt": 4236,
      "short": 4237,
      "cart": 4238,
      "##nts": 4239,
      "##sts": 4240,
      "##stable": 4241,
      "seven": 4242,
      "##ilroad": 4243,
      "headed": 4244,
      "plain": 4245,
      "fluid": 4246,
      "comers": 4247,
      "##elid": 4248,
      "downside": 4249,
      "clearly": 4250,
      "played": 4251,
      "eyelid": 4252,
      "reac": 4253,
      "lives": 4254,
      "sci": 4255,
      "scares": 4256,
      "dissatisfied": 4257,
      "mopping": 4258,
      "appeals": 4259,
      "consc": 4260,
      "railroad": 4261,
      "heart": 4262,
      "brave": 4263,
      "brushing": 4264,
      "leaking": 4265,
      "##icked": 4266,
      "offered": 4267,
      "dolls": 4268,
      "approves": 4269,
      "lighted": 4270,
      "flog": 4271,
      "course": 4272,
      "knowing": 4273,
      "##ishness": 4274,
      "teach": 4275,
      "anyone": 4276,
      "unstable": 4277,
      "##fulness": 4278,
      "host": 4279,
      "holing": 4280,
      "deliciously": 4281,
      "##iousness": 4282,
      "stretched": 4283,
      "reli": 4284,
      "program": 4285,
      "bears": 4286,
      "prints": 4287,
      "joyfully": 4288,
      "rude": 4289,
      "imitates": 4290,
      "snowballs": 4291,
      "resign": 4292,
      "beams": 4293,
      "directly": 4294,
      "expelled": 4295,
      "bows": 4296,
      "panel": 4297,
      "heavier": 4298,
      "guests": 4299,
      "phone": 4300,
      "reco": 4301,
      "buttons": 4302,
      "##itched": 4303,
      "snitched": 4304,
      "visiting": 4305,
      "dropped": 4306,
      "attacks": 4307,
      "attacking": 4308,
      "attitude": 4309,
      "belief": 4310,
      "bookshelves": 4311,
      "snowboarding": 4312,
      "scribbling": 4313,
      "impact": 4314,
      "failure": 4315,
      "weathered": 4316,
      "strike": 4317,
      "controller": 4318,
      "job": 4319,
      "speeds": 4320,
      "speeding": 4321,
      "assure": 4322,
      "enjoyed": 4323,
      "awoke": 4324,
      "tapped": 4325,
      "grasp": 4326,
      "ribs": 4327,
      "practicing": 4328,
      "kindness": 4329,
      "medicine": 4330,
      "shyly": 4331,
      "exchanging": 4332,
      "wipes": 4333,
      "competing": 4334,
      "defending": 4335,
      "focus": 4336,
      "actions": 4337,
      "concern": 4338,
      "welcoming": 4339,
      "flicker": 4340,
      "disagrees": 4341,
      "resembles": 4342,
      "reflecting": 4343,
      "heroes": 4344,
      "exhaling": 4345,
      "exhales": 4346,
      "curtain": 4347,
      "terrified": 4348,
      "dashboard": 4349,
      "radiant": 4350,
      "insisting": 4351,
      "nervously": 4352,
      "viol": 4353,
      "viole": 4354,
      "scatter": 4355,
      "scattered": 4356,
      "flattered": 4357,
      "giggle": 4358,
      "gasps": 4359,
      "selfishness": 4360,
      "releases": 4361,
      "protect": 4362,
      "accelerated": 4363,
      "overdoing": 4364,
      "damaged": 4365,
      "flecks": 4366,
      "jealous": 4367,
      "zigzag": 4368,
      "thrusts": 4369,
      "whirling": 4370,
      "shirts": 4371,
      "shelter": 4372,
      "consciousness": 4373,
      "violently": 4374,
      "zigzagging": 4375,
      "ack": 4376,
      "fie": 4377,
      "fum": 4378,
      "jer": 4379,
      "natur": 4380,
      "rough": 4381,
      "sighing": 4382,
      "##lit": 4383,
      "##cil": 4384,
      "##hic": 4385,
      "##hful": 4386,
      "##des": 4387,
      "##ired": 4388,
      "##iving": 4389,
      "##ber": 4390,
      "##nging": 4391,
      "toast": 4392,
      "looses": 4393,
      "##isted": 4394,
      "##riors": 4395,
      "##nowled": 4396,
      "##acto": 4397,
      "##ones": 4398,
      "##icer": 4399,
      "smog": 4400,
      "##ilar": 4401,
      "class": 4402,
      "headlights": 4403,
      "headache": 4404,
      "plants": 4405,
      "fled": 4406,
      "boiled": 4407,
      "split": 4408,
      "existen": 4409,
      "arra": 4410,
      "waiving": 4411,
      "slamm": 4412,
      "reass": 4413,
      "everyones": 4414,
      "apply": 4415,
      "saf": 4416,
      "closet": 4417,
      "##xteen": 4418,
      "bashful": 4419,
      "cabb": 4420,
      "teams": 4421,
      "timber": 4422,
      "grass": 4423,
      "clapped": 4424,
      "sounds": 4425,
      "##atisfacto": 4426,
      "crushed": 4427,
      "warriors": 4428,
      "heaves": 4429,
      "panting": 4430,
      "stays": 4431,
      "talked": 4432,
      "impro": 4433,
      "dreams": 4434,
      "forgi": 4435,
      "forgave": 4436,
      "message": 4437,
      "gesturing": 4438,
      "uniforms": 4439,
      "admired": 4440,
      "repeat": 4441,
      "mistakes": 4442,
      "sincere": 4443,
      "collides": 4444,
      "steering": 4445,
      "faced": 4446,
      "clothing": 4447,
      "argues": 4448,
      "vehic": 4449,
      "upwards": 4450,
      "grows": 4451,
      "unsatisfacto": 4452,
      "concerned": 4453,
      "explodes": 4454,
      "slipped": 4455,
      "similar": 4456,
      "mountaintop": 4457,
      "mountaintops": 4458,
      "dubious": 4459,
      "sixteen": 4460,
      "vertically": 4461,
      "submer": 4462,
      "alarm": 4463,
      "deeds": 4464,
      "member": 4465,
      "pencil": 4466,
      "experiment": 4467,
      "experience": 4468,
      "violet": 4469,
      "acknowled": 4470,
      "fiends": 4471,
      "fume": 4472,
      "jerk": 4473,
      "natural": 4474,
      "classes": 4475,
      "existence": 4476,
      "arranging": 4477,
      "slammed": 4478,
      "cabbage": 4479,
      "vehicle": 4480,
      "unsatisfactory": 4481,
      "acknowledges": 4482,
      "aud": 4483,
      "ev": 4484,
      "equ": 4485,
      "joke": 4486,
      "matt": 4487,
      "pi": 4488,
      "##had": 4489,
      "##xing": 4490,
      "##routing": 4491,
      "pops": 4492,
      "##int": 4493,
      "##eam": 4494,
      "stacks": 4495,
      "steam": 4496,
      "##top": 4497,
      "cost": 4498,
      "##ape": 4499,
      "##ilt": 4500,
      "##vering": 4501,
      "taxing": 4502,
      "##elet": 4503,
      "supp": 4504,
      "ability": 4505,
      "sprouting": 4506,
      "clocks": 4507,
      "background": 4508,
      "judge": 4509,
      "##ipment": 4510,
      "drape": 4511,
      "maker": 4512,
      "dragons": 4513,
      "sail": 4514,
      "leaping": 4515,
      "cakes": 4516,
      "built": 4517,
      "##bbon": 4518,
      "hey": 4519,
      "chased": 4520,
      "pulled": 4521,
      "highlight": 4522,
      "weight": 4523,
      "fare": 4524,
      "##iences": 4525,
      "##ouraged": 4526,
      "refuse": 4527,
      "days": 4528,
      "##umes": 4529,
      "dreamed": 4530,
      "delightfully": 4531,
      "greeted": 4532,
      "promised": 4533,
      "discouraged": 4534,
      "emph": 4535,
      "behaviors": 4536,
      "collapse": 4537,
      "ribbon": 4538,
      "encount": 4539,
      "widely": 4540,
      "cloned": 4541,
      "shivering": 4542,
      "viewers": 4543,
      "satisfies": 4544,
      "interrupts": 4545,
      "weak": 4546,
      "invented": 4547,
      "circular": 4548,
      "peaks": 4549,
      "specifically": 4550,
      "seventy": 4551,
      "audiences": 4552,
      "equipment": 4553,
      "matter": 4554,
      "piano": 4555,
      "costumes": 4556,
      "highlighted": 4557,
      "bul": 4558,
      "baring": 4559,
      "banks": 4560,
      "cro": 4561,
      "cow": 4562,
      "cun": 4563,
      "cel": 4564,
      "cree": 4565,
      "casting": 4566,
      "era": 4567,
      "fou": 4568,
      "fas": 4569,
      "files": 4570,
      "filed": 4571,
      "gulp": 4572,
      "hook": 4573,
      "hushes": 4574,
      "ir": 4575,
      "jag": 4576,
      "kidd": 4577,
      "ling": 4578,
      "lat": 4579,
      "lines": 4580,
      "lasting": 4581,
      "minds": 4582,
      "nor": 4583,
      "nine": 4584,
      "nick": 4585,
      "narr": 4586,
      "ot": 4587,
      "ping": 4588,
      "pit": 4589,
      "pay": 4590,
      "pair": 4591,
      "prec": 4592,
      "punch": 4593,
      "ren": 4594,
      "rim": 4595,
      "rear": 4596,
      "ratt": 4597,
      "ripping": 4598,
      "sau": 4599,
      "sank": 4600,
      "sque": 4601,
      "ty": 4602,
      "tank": 4603,
      "ut": 4604,
      "vice": 4605,
      "wed": 4606,
      "wow": 4607,
      "wied": 4608,
      "##sence": 4609,
      "##lace": 4610,
      "##lth": 4611,
      "##edy": 4612,
      "##ebook": 4613,
      "##eze": 4614,
      "##pid": 4615,
      "##pot": 4616,
      "##pute": 4617,
      "##ukes": 4618,
      "##ups": 4619,
      "##ni": 4620,
      "##night": 4621,
      "##name": 4622,
      "##natur": 4623,
      "##cin": 4624,
      "##come": 4625,
      "##hen": 4626,
      "##hus": 4627,
      "##ax": 4628,
      "##aing": 4629,
      "##aken": 4630,
      "##dri": 4631,
      "##dor": 4632,
      "##dile": 4633,
      "##dies": 4634,
      "##die": 4635,
      "##was": 4636,
      "##ift": 4637,
      "##ianc": 4638,
      "##iastic": 4639,
      "##mused": 4640,
      "##mands": 4641,
      "##tim": 4642,
      "##rit": 4643,
      "##rate": 4644,
      "##raw": 4645,
      "##op": 4646,
      "##off": 4647,
      "##ods": 4648,
      "##orous": 4649,
      "##ollen": 4650,
      "##gant": 4651,
      "##gree": 4652,
      "##val": 4653,
      "##bes": 4654,
      "##bit": 4655,
      "##bukes": 4656,
      "##fro": 4657,
      "##forts": 4658,
      "##fuse": 4659,
      "##roph": 4660,
      "##rogant": 4661,
      "##ndred": 4662,
      "poling": 4663,
      "issu": 4664,
      "##reac": 4665,
      "##reling": 4666,
      "tore": 4667,
      "tour": 4668,
      "tonight": 4669,
      "eddie": 4670,
      "##arri": 4671,
      "##arts": 4672,
      "##arreling": 4673,
      "##etizing": 4674,
      "##isits": 4675,
      "##eding": 4676,
      "##ows": 4677,
      "##owed": 4678,
      "pobyst": 4679,
      "pobyhead": 4680,
      "inform": 4681,
      "##itutes": 4682,
      "##lean": 4683,
      "##rible": 4684,
      "##ridor": 4685,
      "##inching": 4686,
      "##inished": 4687,
      "##ommend": 4688,
      "##ompre": 4689,
      "stor": 4690,
      "stain": 4691,
      "stains": 4692,
      "stream": 4693,
      "steals": 4694,
      "withing": 4695,
      "##action": 4696,
      "##onizes": 4697,
      "atop": 4698,
      "##asant": 4699,
      "bending": 4700,
      "bemused": 4701,
      "friendship": 4702,
      "hour": 4703,
      "##allowed": 4704,
      "##orn": 4705,
      "##orse": 4706,
      "shif": 4707,
      "shinning": 4708,
      "shocking": 4709,
      "shrin": 4710,
      "blown": 4711,
      "blast": 4712,
      "blush": 4713,
      "somep": 4714,
      "cars": 4715,
      "carried": 4716,
      "##irps": 4717,
      "smacks": 4718,
      "smacking": 4719,
      "smart": 4720,
      "##stood": 4721,
      "##stitutes": 4722,
      "send": 4723,
      "sewed": 4724,
      "##ils": 4725,
      "##chni": 4726,
      "clue": 4727,
      "gobble": 4728,
      "plods": 4729,
      "flinching": 4730,
      "commands": 4731,
      "comforts": 4732,
      "##ags": 4733,
      "forces": 4734,
      "downstairs": 4735,
      "chaing": 4736,
      "chirps": 4737,
      "bodies": 4738,
      "abrup": 4739,
      "absence": 4740,
      "spin": 4741,
      "spout": 4742,
      "spark": 4743,
      "spare": 4744,
      "sport": 4745,
      "spraw": 4746,
      "soeddy": 4747,
      "sockets": 4748,
      "juices": 4749,
      "notif": 4750,
      "notebook": 4751,
      "##iest": 4752,
      "arbit": 4753,
      "arrogant": 4754,
      "otherwise": 4755,
      "waited": 4756,
      "seeming": 4757,
      "slided": 4758,
      "slump": 4759,
      "forever": 4760,
      "forefro": 4761,
      "washing": 4762,
      "##ningly": 4763,
      "##atefulness": 4764,
      "##sidered": 4765,
      "##entiously": 4766,
      "lied": 4767,
      "scent": 4768,
      "scoff": 4769,
      "agonizes": 4770,
      "trial": 4771,
      "tripped": 4772,
      "dispute": 4773,
      "lends": 4774,
      "lemon": 4775,
      "level": 4776,
      "grew": 4777,
      "greedy": 4778,
      "##ggles": 4779,
      "movers": 4780,
      "##awls": 4781,
      "theneddy": 4782,
      "appetizing": 4783,
      "fever": 4784,
      "worn": 4785,
      "catcher": 4786,
      "twig": 4787,
      "twisted": 4788,
      "thins": 4789,
      "considered": 4790,
      "##ghter": 4791,
      "greenish": 4792,
      "switch": 4793,
      "swung": 4794,
      "swift": 4795,
      "swollen": 4796,
      "swallowed": 4797,
      "shares": 4798,
      "saves": 4799,
      "driven": 4800,
      "dribbled": 4801,
      "brags": 4802,
      "overcome": 4803,
      "overreac": 4804,
      "leaps": 4805,
      "leaved": 4806,
      "rebukes": 4807,
      "tray": 4808,
      "trash": 4809,
      "glisten": 4810,
      "glum": 4811,
      "case": 4812,
      "officer": 4813,
      "santais": 4814,
      "singer": 4815,
      "finises": 4816,
      "laughter": 4817,
      "butter": 4818,
      "cube": 4819,
      "manner": 4820,
      "managed": 4821,
      "underne": 4822,
      "understood": 4823,
      "wobble": 4824,
      "makeups": 4825,
      "mouths": 4826,
      "quarreling": 4827,
      "hundred": 4828,
      "##ccol": 4829,
      "##bborn": 4830,
      "breadth": 4831,
      "broccol": 4832,
      "##point": 4833,
      "disappoint": 4834,
      "heeding": 4835,
      "teared": 4836,
      "chef": 4837,
      "diagon": 4838,
      "rowing": 4839,
      "content": 4840,
      "flowerpot": 4841,
      "anywhere": 4842,
      "gratefulness": 4843,
      "degree": 4844,
      "defuse": 4845,
      "biting": 4846,
      "dancer": 4847,
      "wands": 4848,
      "wander": 4849,
      "intend": 4850,
      "helping": 4851,
      "unple": 4852,
      "unnatur": 4853,
      "whypoby": 4854,
      "parting": 4855,
      "hollow": 4856,
      "hoping": 4857,
      "##codile": 4858,
      "deliver": 4859,
      "curios": 4860,
      "##thinks": 4861,
      "saluting": 4862,
      "hitter": 4863,
      "goals": 4864,
      "hive": 4865,
      "haven": 4866,
      "ruin": 4867,
      "pretentiously": 4868,
      "enthus": 4869,
      "remind": 4870,
      "removes": 4871,
      "remorse": 4872,
      "##quet": 4873,
      "resent": 4874,
      "resol": 4875,
      "resisting": 4876,
      "crap": 4877,
      "crate": 4878,
      "crush": 4879,
      "crushes": 4880,
      "crawl": 4881,
      "crawls": 4882,
      "moments": 4883,
      "spotting": 4884,
      "spotted": 4885,
      "beak": 4886,
      "beaver": 4887,
      "beavers": 4888,
      "wonderful": 4889,
      "directing": 4890,
      "##veness": 4891,
      "bowing": 4892,
      "beforepoby": 4893,
      "health": 4894,
      "panicked": 4895,
      "tasted": 4896,
      "planes": 4897,
      "planned": 4898,
      "heaviest": 4899,
      "guides": 4900,
      "hammers": 4901,
      "hammered": 4902,
      "prevent": 4903,
      "departs": 4904,
      "potions": 4905,
      "phys": 4906,
      "sharing": 4907,
      "recalls": 4908,
      "recommend": 4909,
      "stupid": 4910,
      "stubborn": 4911,
      "stayed": 4912,
      "compared": 4913,
      "snake": 4914,
      "snores": 4915,
      "blankets": 4916,
      "daytim": 4917,
      "reasons": 4918,
      "dropping": 4919,
      "require": 4920,
      "brighter": 4921,
      "brightened": 4922,
      "microph": 4923,
      "##umed": 4924,
      "fool": 4925,
      "invited": 4926,
      "streets": 4927,
      "lastly": 4928,
      "perhap": 4929,
      "frightening": 4930,
      "yawn": 4931,
      "import": 4932,
      "impru": 4933,
      "shading": 4934,
      "boards": 4935,
      "quietness": 4936,
      "incompre": 4937,
      "scariness": 4938,
      "##dently": 4939,
      "pickax": 4940,
      "whisking": 4941,
      "forgets": 4942,
      "effects": 4943,
      "desire": 4944,
      "ended": 4945,
      "endure": 4946,
      "began": 4947,
      "admitting": 4948,
      "corridor": 4949,
      "patter": 4950,
      "strikes": 4951,
      "charming": 4952,
      "charged": 4953,
      "pranks": 4954,
      "threatens": 4955,
      "spewed": 4956,
      "dizziness": 4957,
      "clenched": 4958,
      "controlling": 4959,
      "successful": 4960,
      "joined": 4961,
      "jogging": 4962,
      "casted": 4963,
      "deeper": 4964,
      "deepest": 4965,
      "behaves": 4966,
      "discovered": 4967,
      "iced": 4968,
      "unfinished": 4969,
      "inclines": 4970,
      "signpost": 4971,
      "##shows": 4972,
      "frowned": 4973,
      "sincerely": 4974,
      "assumed": 4975,
      "crashes": 4976,
      "inventions": 4977,
      "solved": 4978,
      "stamping": 4979,
      "stamped": 4980,
      "aware": 4981,
      "awaken": 4982,
      "sighed": 4983,
      "apart": 4984,
      "suspecting": 4985,
      "techni": 4986,
      "congratulate": 4987,
      "congratulates": 4988,
      "facial": 4989,
      "consisting": 4990,
      "accepting": 4991,
      "appreciate": 4992,
      "dangerously": 4993,
      "declares": 4994,
      "adding": 4995,
      "rival": 4996,
      "remember": 4997,
      "practices": 4998,
      "rackets": 4999,
      "annoying": 5000,
      "kindly": 5001,
      "injures": 5002,
      "correct": 5003,
      "lasts": 5004,
      "shoveling": 5005,
      "conducts": 5006,
      "conductor": 5007,
      "birds": 5008,
      "exchanges": 5009,
      "cloths": 5010,
      "bounce": 5011,
      "bouquet": 5012,
      "horrible": 5013,
      "powder": 5014,
      "shoe": 5015,
      "chooses": 5016,
      "decorations": 5017,
      "shotted": 5018,
      "compete": 5019,
      "opposition": 5020,
      "taller": 5021,
      "polar": 5022,
      "rotated": 5023,
      "helmet": 5024,
      "confessing": 5025,
      "confessed": 5026,
      "confession": 5027,
      "electricity": 5028,
      "sprinkle": 5029,
      "sprinkling": 5030,
      "pucker": 5031,
      "organizes": 5032,
      "organize": 5033,
      "easier": 5034,
      "tipped": 5035,
      "stirs": 5036,
      "strait": 5037,
      "forecasting": 5038,
      "reveal": 5039,
      "revisits": 5040,
      "concerning": 5041,
      "chemicals": 5042,
      "tempted": 5043,
      "bursts": 5044,
      "mixed": 5045,
      "lengthen": 5046,
      "forgotten": 5047,
      "arguments": 5048,
      "destinations": 5049,
      "tern": 5050,
      "term": 5051,
      "astray": 5052,
      "slipping": 5053,
      "relax": 5054,
      "recipes": 5055,
      "dashes": 5056,
      "##ews": 5057,
      "insists": 5058,
      "shamefully": 5059,
      "claims": 5060,
      "claiming": 5061,
      "observes": 5062,
      "viewpoint": 5063,
      "emit": 5064,
      "emotion": 5065,
      "satisfaction": 5066,
      "voices": 5067,
      "flatten": 5068,
      "slapping": 5069,
      "negative": 5070,
      "invitation": 5071,
      "marching": 5072,
      "versa": 5073,
      "struggles": 5074,
      "glanced": 5075,
      "sneaks": 5076,
      "sneaking": 5077,
      "distract": 5078,
      "dresser": 5079,
      "eighty": 5080,
      "popular": 5081,
      "thatpobyhad": 5082,
      "thatpobywas": 5083,
      "discussion": 5084,
      "crossroads": 5085,
      "disagreeing": 5086,
      "eagerly": 5087,
      "dubiously": 5088,
      "six": 5089,
      "vertical": 5090,
      "substitutes": 5091,
      "alarms": 5092,
      "applianc": 5093,
      "humble": 5094,
      "members": 5095,
      "functioning": 5096,
      "weaker": 5097,
      "screwdri": 5098,
      "circling": 5099,
      "drowsing": 5100,
      "drowses": 5101,
      "vigor": 5102,
      "vigorous": 5103,
      "juggle": 5104,
      "juggles": 5105,
      "examines": 5106,
      "examining": 5107,
      "neatly": 5108,
      "surviving": 5109,
      "survived": 5110,
      "admitted": 5111,
      "urgent": 5112,
      "urgently": 5113,
      "penguin": 5114,
      "penguins": 5115,
      "original": 5116,
      "originally": 5117,
      "misunderstands": 5118,
      "misunderstanding": 5119,
      "freeze": 5120,
      "square": 5121,
      "spoils": 5122,
      "backpack": 5123,
      "intensely": 5124,
      "delusional": 5125,
      "accumulated": 5126,
      "advised": 5127,
      "adjusting": 5128,
      "describes": 5129,
      "sympathizes": 5130,
      "radio": 5131,
      "cushions": 5132,
      "credit": 5133,
      "crowd": 5134,
      "rising": 5135,
      "resignation": 5136,
      "reassures": 5137,
      "forgiveness": 5138,
      "bulbs": 5139,
      "crocodile": 5140,
      "cowered": 5141,
      "cunningly": 5142,
      "celery": 5143,
      "creepy": 5144,
      "erase": 5145,
      "founds": 5146,
      "fascin": 5147,
      "irrit": 5148,
      "jagged": 5149,
      "kidding": 5150,
      "lingers": 5151,
      "latest": 5152,
      "north": 5153,
      "nickname": 5154,
      "narrator": 5155,
      "otloopy": 5156,
      "pitcher": 5157,
      "precious": 5158,
      "renews": 5159,
      "rattling": 5160,
      "sauce": 5161,
      "squeeze": 5162,
      "typed": 5163,
      "utters": 5164,
      "wedges": 5165,
      "wieding": 5166,
      "##hensible": 5167,
      "issues": 5168,
      "##arrived": 5169,
      "pobystomach": 5170,
      "information": 5171,
      "##leaned": 5172,
      "storage": 5173,
      "shifts": 5174,
      "someplace": 5175,
      "abruptly": 5176,
      "sparkling": 5177,
      "sprawled": 5178,
      "soeddyleaned": 5179,
      "notify": 5180,
      "arbitrate": 5181,
      "slumps": 5182,
      "forefront": 5183,
      "scoffs": 5184,
      "lemons": 5185,
      "theneddyshows": 5186,
      "swiftly": 5187,
      "overreacts": 5188,
      "trashes": 5189,
      "glistening": 5190,
      "glumly": 5191,
      "underneath": 5192,
      "broccoli": 5193,
      "diagonal": 5194,
      "unpleasant": 5195,
      "unnaturally": 5196,
      "whypobythinks": 5197,
      "curiosity": 5198,
      "enthusiastic": 5199,
      "resolution": 5200,
      "beforepobyarrived": 5201,
      "healthy": 5202,
      "physically": 5203,
      "daytime": 5204,
      "microphone": 5205,
      "perhaps": 5206,
      "important": 5207,
      "imprudently": 5208,
      "incomprehensible": 5209,
      "pattern": 5210,
      "awakened": 5211,
      "technique": 5212,
      "rivalry": 5213,
      "appliances": 5214,
      "screwdriver": 5215,
      "vigorously": 5216,
      "fascinated": 5217,
      "irritated": 5218,
      "ax": 5219,
      "aff": 5220,
      "ahe": 5221,
      "awhile": 5222,
      "ben": 5223,
      "bon": 5224,
      "bounded": 5225,
      "cut": 5226,
      "cap": 5227,
      "cone": 5228,
      "cute": 5229,
      "dand": 5230,
      "dood": 5231,
      "duck": 5232,
      "dares": 5233,
      "dors": 5234,
      "esp": 5235,
      "either": 5236,
      "fit": 5237,
      "fam": 5238,
      "futu": 5239,
      "gid": 5240,
      "gain": 5241,
      "hips": 5242,
      "ill": 5243,
      "kett": 5244,
      "kept": 5245,
      "key": 5246,
      "len": 5247,
      "lic": 5248,
      "lag": 5249,
      "less": 5250,
      "laz": 5251,
      "lumb": 5252,
      "mother": 5253,
      "nook": 5254,
      "occ": 5255,
      "pack": 5256,
      "pau": 5257,
      "pest": 5258,
      "pine": 5259,
      "paces": 5260,
      "rat": 5261,
      "soo": 5262,
      "tar": 5263,
      "tight": 5264,
      "tick": 5265,
      "tenn": 5266,
      "wri": 5267,
      "wid": 5268,
      "wine": 5269,
      "yea": 5270,
      "##sure": 5271,
      "##let": 5272,
      "##like": 5273,
      "##eat": 5274,
      "##eates": 5275,
      "##pea": 5276,
      "##pon": 5277,
      "##uly": 5278,
      "##uce": 5279,
      "##net": 5280,
      "##noc": 5281,
      "##crong": 5282,
      "##con": 5283,
      "##case": 5284,
      "##cular": 5285,
      "##hes": 5286,
      "##hear": 5287,
      "##hill": 5288,
      "##holds": 5289,
      "##hands": 5290,
      "##hlet": 5291,
      "##yz": 5292,
      "##ab": 5293,
      "##aking": 5294,
      "##abbling": 5295,
      "##avo": 5296,
      "##dging": 5297,
      "##idy": 5298,
      "##ian": 5299,
      "##ially": 5300,
      "##mic": 5301,
      "##table": 5302,
      "##tured": 5303,
      "##tiness": 5304,
      "##ky": 5305,
      "##oped": 5306,
      "##ger": 5307,
      "##graph": 5308,
      "##xes": 5309,
      "##bing": 5310,
      "##back": 5311,
      "##for": 5312,
      "##rody": 5313,
      "##roys": 5314,
      "poor": 5315,
      "poses": 5316,
      "popping": 5317,
      "##rently": 5318,
      "##reasing": 5319,
      "##roroholds": 5320,
      "crongsu": 5321,
      "crongcrong": 5322,
      "##arily": 5323,
      "##ety": 5324,
      "##etic": 5325,
      "##etloopy": 5326,
      "##isy": 5327,
      "##iscent": 5328,
      "##edback": 5329,
      "##atically": 5330,
      "innoc": 5331,
      "##ouris": 5332,
      "ones": 5333,
      "##riness": 5334,
      "often": 5335,
      "##iniscent": 5336,
      "stim": 5337,
      "steep": 5338,
      "harsh": 5339,
      "witness": 5340,
      "##oning": 5341,
      "athlet": 5342,
      "##idab": 5343,
      "##uter": 5344,
      "##anting": 5345,
      "##anny": 5346,
      "##alyz": 5347,
      "fried": 5348,
      "beat": 5349,
      "beck": 5350,
      "beating": 5351,
      "##igning": 5352,
      "sayng": 5353,
      "##allel": 5354,
      "##redul": 5355,
      "##icks": 5356,
      "##icted": 5357,
      "##iciting": 5358,
      "##ording": 5359,
      "##orarily": 5360,
      "shell": 5361,
      "core": 5362,
      "skin": 5363,
      "skipping": 5364,
      "skelet": 5365,
      "##irit": 5366,
      "##ircular": 5367,
      "smeared": 5368,
      "##step": 5369,
      "##stantly": 5370,
      "sewn": 5371,
      "seized": 5372,
      "semic": 5373,
      "##apes": 5374,
      "##appea": 5375,
      "uphill": 5376,
      "gobbles": 5377,
      "fronts": 5378,
      "plung": 5379,
      "tamp": 5380,
      "flight": 5381,
      "flouris": 5382,
      "flicks": 5383,
      "tress": 5384,
      "##elion": 5385,
      "##ills": 5386,
      "##ams": 5387,
      "chanting": 5388,
      "bobbing": 5389,
      "boys": 5390,
      "whilepo": 5391,
      "dog": 5392,
      "dodging": 5393,
      "align": 5394,
      "alters": 5395,
      "doorstep": 5396,
      "spear": 5397,
      "spirit": 5398,
      "spills": 5399,
      "exists": 5400,
      "##ceful": 5401,
      "slant": 5402,
      "slams": 5403,
      "##eres": 5404,
      "##eree": 5405,
      "##erence": 5406,
      "starring": 5407,
      "##using": 5408,
      "##ardless": 5409,
      "##entist": 5410,
      "##anted": 5411,
      "scents": 5412,
      "besides": 5413,
      "displ": 5414,
      "disint": 5415,
      "noises": 5416,
      "noisy": 5417,
      "##ecially": 5418,
      "motor": 5419,
      "feedback": 5420,
      "worst": 5421,
      "drags": 5422,
      "togetloopy": 5423,
      "flows": 5424,
      "constantly": 5425,
      "fished": 5426,
      "sleighing": 5427,
      "season": 5428,
      "sweat": 5429,
      "darker": 5430,
      "shaken": 5431,
      "shaky": 5432,
      "likely": 5433,
      "rooms": 5434,
      "##ddenly": 5435,
      "overhear": 5436,
      "reward": 5437,
      "track": 5438,
      "truly": 5439,
      "glares": 5440,
      "glaring": 5441,
      "##ulant": 5442,
      "##ulating": 5443,
      "##ulates": 5444,
      "cares": 5445,
      "roads": 5446,
      "fins": 5447,
      "sideways": 5448,
      "fixation": 5449,
      "##aneously": 5450,
      "hats": 5451,
      "sleepless": 5452,
      "cupping": 5453,
      "buckets": 5454,
      "shouldn": 5455,
      "##ongated": 5456,
      "lightning": 5457,
      "lightens": 5458,
      "gatloopy": 5459,
      "quake": 5460,
      "##erfully": 5461,
      "##erferes": 5462,
      "floated": 5463,
      "hums": 5464,
      "idle": 5465,
      "scrub": 5466,
      "sunk": 5467,
      "heel": 5468,
      "teas": 5469,
      "cheerfully": 5470,
      "died": 5471,
      "dived": 5472,
      "sorriness": 5473,
      "contest": 5474,
      "containing": 5475,
      "drawers": 5476,
      "grum": 5477,
      "grapes": 5478,
      "##losure": 5479,
      "intention": 5480,
      "interferes": 5481,
      "unavo": 5482,
      "unappea": 5483,
      "parking": 5484,
      "paralyz": 5485,
      "parallel": 5486,
      "hods": 5487,
      "tools": 5488,
      "baits": 5489,
      "stretch": 5490,
      "progress": 5491,
      "probing": 5492,
      "##iffs": 5493,
      "##ifference": 5494,
      "salutes": 5495,
      "stepped": 5496,
      "joys": 5497,
      "happed": 5498,
      "fastest": 5499,
      "haves": 5500,
      "rubbles": 5501,
      "prettiness": 5502,
      "rolled": 5503,
      "remove": 5504,
      "reminiscent": 5505,
      "##quake": 5506,
      "resting": 5507,
      "respon": 5508,
      "crates": 5509,
      "cranny": 5510,
      "badge": 5511,
      "fairy": 5512,
      "spotless": 5513,
      "warned": 5514,
      "sawed": 5515,
      "expects": 5516,
      "planets": 5517,
      "prey": 5518,
      "depicted": 5519,
      "larger": 5520,
      "referee": 5521,
      "refusing": 5522,
      "stung": 5523,
      "realize": 5524,
      "realizing": 5525,
      "comply": 5526,
      "compelled": 5527,
      "computer": 5528,
      "snatches": 5529,
      "sniffs": 5530,
      "receiving": 5531,
      "moons": 5532,
      "according": 5533,
      "introduce": 5534,
      "visitors": 5535,
      "drooped": 5536,
      "knee": 5537,
      "pleasure": 5538,
      "attacked": 5539,
      "tire": 5540,
      "instantly": 5541,
      "birdlike": 5542,
      "interests": 5543,
      "##iety": 5544,
      "yawned": 5545,
      "detects": 5546,
      "thanked": 5547,
      "tilt": 5548,
      "tiling": 5549,
      "conceals": 5550,
      "increasing": 5551,
      "incredul": 5552,
      "dreaming": 5553,
      "shadows": 5554,
      "merrily": 5555,
      "flasks": 5556,
      "flashing": 5557,
      "messed": 5558,
      "breaking": 5559,
      "effort": 5560,
      "earthquake": 5561,
      "avoiding": 5562,
      "desks": 5563,
      "designing": 5564,
      "seemed": 5565,
      "balcon": 5566,
      "disclosure": 5567,
      "threatened": 5568,
      "marked": 5569,
      "lifted": 5570,
      "repeating": 5571,
      "effective": 5572,
      "louder": 5573,
      "photograph": 5574,
      "discusses": 5575,
      "danging": 5576,
      "##ultaneously": 5577,
      "unties": 5578,
      "untidy": 5579,
      "secondly": 5580,
      "collects": 5581,
      "assent": 5582,
      "assuring": 5583,
      "solves": 5584,
      "soliciting": 5585,
      "bands": 5586,
      "bandages": 5587,
      "portable": 5588,
      "suspect": 5589,
      "recognized": 5590,
      "teleph": 5591,
      "stem": 5592,
      "congratulated": 5593,
      "petulant": 5594,
      "scanning": 5595,
      "hesitation": 5596,
      "remotely": 5597,
      "puppets": 5598,
      "river": 5599,
      "anxiety": 5600,
      "##ucture": 5601,
      "elongated": 5602,
      "filling": 5603,
      "concentrates": 5604,
      "learning": 5605,
      "learned": 5606,
      "midair": 5607,
      "write": 5608,
      "troubles": 5609,
      "inquire": 5610,
      "horns": 5611,
      "indian": 5612,
      "indifference": 5613,
      "dirt": 5614,
      "encouraged": 5615,
      "pretended": 5616,
      "ringing": 5617,
      "shuts": 5618,
      "rotating": 5619,
      "rotation": 5620,
      "staircase": 5621,
      "recalled": 5622,
      "swords": 5623,
      "unsure": 5624,
      "sprinkles": 5625,
      "destroys": 5626,
      "puckering": 5627,
      "attaches": 5628,
      "borrowed": 5629,
      "easy": 5630,
      "chicken": 5631,
      "forecasts": 5632,
      "nerves": 5633,
      "struck": 5634,
      "structure": 5635,
      "whispered": 5636,
      "tempo": 5637,
      "temper": 5638,
      "tempered": 5639,
      "temporarily": 5640,
      "calmly": 5641,
      "flounders": 5642,
      "mixes": 5643,
      "echoing": 5644,
      "currently": 5645,
      "explanations": 5646,
      "digging": 5647,
      "insist": 5648,
      "comfortable": 5649,
      "overtaking": 5650,
      "pleading": 5651,
      "miniatures": 5652,
      "straightfor": 5653,
      "trusts": 5654,
      "permeates": 5655,
      "stonewalls": 5656,
      "observe": 5657,
      "observed": 5658,
      "emits": 5659,
      "simple": 5660,
      "simultaneously": 5661,
      "satisfy": 5662,
      "aggressive": 5663,
      "drowned": 5664,
      "grips": 5665,
      "marvel": 5666,
      "punches": 5667,
      "ashame": 5668,
      "##entific": 5669,
      "sneak": 5670,
      "interrupt": 5671,
      "interrupted": 5672,
      "excitingly": 5673,
      "unwanted": 5674,
      "giggling": 5675,
      "unfoldsrody": 5676,
      "intercepts": 5677,
      "towels": 5678,
      "powerfully": 5679,
      "applause": 5680,
      "releasing": 5681,
      "protects": 5682,
      "responds": 5683,
      "responding": 5684,
      "responded": 5685,
      "functioned": 5686,
      "accelerating": 5687,
      "suffers": 5688,
      "suffering": 5689,
      "celebrating": 5690,
      "celebrates": 5691,
      "experimenting": 5692,
      "peaceful": 5693,
      "regardless": 5694,
      "specific": 5695,
      "squabbling": 5696,
      "clinging": 5697,
      "clashes": 5698,
      "spoken": 5699,
      "backpacks": 5700,
      "scolding": 5701,
      "accumulating": 5702,
      "advises": 5703,
      "describe": 5704,
      "sympathetic": 5705,
      "radiated": 5706,
      "fairness": 5707,
      "fiddles": 5708,
      "fiddling": 5709,
      "loved": 5710,
      "losing": 5711,
      "shedding": 5712,
      "cartoon": 5713,
      "react": 5714,
      "reacting": 5715,
      "scientist": 5716,
      "scientific": 5717,
      "relives": 5718,
      "relived": 5719,
      "recovered": 5720,
      "recover": 5721,
      "roughly": 5722,
      "applying": 5723,
      "safety": 5724,
      "improved": 5725,
      "submerges": 5726,
      "evil": 5727,
      "emphatically": 5728,
      "shrinks": 5729,
      "beakers": 5730,
      "affect": 5731,
      "ahem": 5732,
      "bench": 5733,
      "bonnet": 5734,
      "captured": 5735,
      "dandelion": 5736,
      "doodles": 5737,
      "dorsal": 5738,
      "especially": 5739,
      "famous": 5740,
      "future": 5741,
      "giddy": 5742,
      "gained": 5743,
      "kettle": 5744,
      "lenses": 5745,
      "licking": 5746,
      "lessen": 5747,
      "laziness": 5748,
      "lumber": 5749,
      "occurs": 5750,
      "pauses": 5751,
      "pesters": 5752,
      "rather": 5753,
      "soot": 5754,
      "target": 5755,
      "tickling": 5756,
      "tennis": 5757,
      "wriggling": 5758,
      "widening": 5759,
      "yeah": 5760,
      "crongsuddenly": 5761,
      "innocence": 5762,
      "stimulates": 5763,
      "harshness": 5764,
      "witnessing": 5765,
      "athlete": 5766,
      "##idably": 5767,
      "beckoning": 5768,
      "skeleton": 5769,
      "semicircular": 5770,
      "plunges": 5771,
      "tamper": 5772,
      "flourishes": 5773,
      "whilepororoholds": 5774,
      "slantwise": 5775,
      "displaces": 5776,
      "disinterest": 5777,
      "motors": 5778,
      "seasoning": 5779,
      "gatloopying": 5780,
      "grumpy": 5781,
      "unavoidably": 5782,
      "unappealing": 5783,
      "paralyzed": 5784,
      "response": 5785,
      "incredulous": 5786,
      "balcony": 5787,
      "telephone": 5788,
      "straightforward": 5789,
      "marvelous": 5790,
      "unfoldsrodyhands": 5791,
      "ah": 5792,
      "aver": 5793,
      "award": 5794,
      "bound": 5795,
      "cher": 5796,
      "cris": 5797,
      "creat": 5798,
      "dies": 5799,
      "fad": 5800,
      "fil": 5801,
      "fake": 5802,
      "fears": 5803,
      "gar": 5804,
      "hatched": 5805,
      "letting": 5806,
      "main": 5807,
      "noon": 5808,
      "pa": 5809,
      "packs": 5810,
      "pages": 5811,
      "rh": 5812,
      "rip": 5813,
      "sat": 5814,
      "sac": 5815,
      "sig": 5816,
      "test": 5817,
      "zoomed": 5818,
      "##sm": 5819,
      "##sal": 5820,
      "##lier": 5821,
      "##ech": 5822,
      "##eers": 5823,
      "##unt": 5824,
      "##uition": 5825,
      "##ney": 5826,
      "##cis": 5827,
      "##cking": 5828,
      "##yth": 5829,
      "##door": 5830,
      "##wor": 5831,
      "##io": 5832,
      "##ib": 5833,
      "##ikes": 5834,
      "##mom": 5835,
      "##tains": 5836,
      "##teen": 5837,
      "##rast": 5838,
      "##ruc": 5839,
      "##ract": 5840,
      "##rmom": 5841,
      "##ople": 5842,
      "##vy": 5843,
      "##jam": 5844,
      "thermom": 5845,
      "##rets": 5846,
      "##oomy": 5847,
      "toss": 5848,
      "tone": 5849,
      "pororosm": 5850,
      "##ercis": 5851,
      "##eter": 5852,
      "##aying": 5853,
      "rocking": 5854,
      "##ealed": 5855,
      "stead": 5856,
      "stack": 5857,
      "steel": 5858,
      "##kings": 5859,
      "##acial": 5860,
      "##onsc": 5861,
      "##vey": 5862,
      "##igned": 5863,
      "shru": 5864,
      "skip": 5865,
      "caring": 5866,
      "smud": 5867,
      "##keep": 5868,
      "clicked": 5869,
      "outdoor": 5870,
      "##verse": 5871,
      "flash": 5872,
      "##aging": 5873,
      "##imney": 5874,
      "##earing": 5875,
      "surprising": 5876,
      "##orer": 5877,
      "downs": 5878,
      "chant": 5879,
      "chimney": 5880,
      "##fteen": 5881,
      "abash": 5882,
      "##aud": 5883,
      "spits": 5884,
      "spatters": 5885,
      "spikes": 5886,
      "sole": 5887,
      "exist": 5888,
      "exited": 5889,
      "exercis": 5890,
      "clears": 5891,
      "slices": 5892,
      "cooker": 5893,
      "fifteen": 5894,
      "trim": 5895,
      "##pless": 5896,
      "jumper": 5897,
      "leftward": 5898,
      "flowered": 5899,
      "month": 5900,
      "conical": 5901,
      "convey": 5902,
      "fishy": 5903,
      "sweep": 5904,
      "swears": 5905,
      "swearing": 5906,
      "blackening": 5907,
      "hilltop": 5908,
      "explorer": 5909,
      "overwor": 5910,
      "leaks": 5911,
      "reverse": 5912,
      "gloomy": 5913,
      "glacial": 5914,
      "manages": 5915,
      "quits": 5916,
      "ideas": 5917,
      "contrast": 5918,
      "bitten": 5919,
      "armor": 5920,
      "intuition": 5921,
      "helpless": 5922,
      "surging": 5923,
      "parts": 5924,
      "alongside": 5925,
      "delaying": 5926,
      "goalkeep": 5927,
      "happier": 5928,
      "happiness": 5929,
      "curiousness": 5930,
      "earlier": 5931,
      "amount": 5932,
      "##uces": 5933,
      "continuing": 5934,
      "continued": 5935,
      "remaining": 5936,
      "confusion": 5937,
      "lowered": 5938,
      "warms": 5939,
      "##venes": 5940,
      "misted": 5941,
      "guy": 5942,
      "guard": 5943,
      "depends": 5944,
      "compares": 5945,
      "understanding": 5946,
      "nothings": 5947,
      "partner": 5948,
      "participates": 5949,
      "foxes": 5950,
      "fourteen": 5951,
      "below": 5952,
      "backwards": 5953,
      "nicely": 5954,
      "strength": 5955,
      "attract": 5956,
      "candles": 5957,
      "instruc": 5958,
      "perio": 5959,
      "farts": 5960,
      "scaring": 5961,
      "scarier": 5962,
      "picky": 5963,
      "served": 5964,
      "forget": 5965,
      "##orter": 5966,
      "greatly": 5967,
      "threaten": 5968,
      "speech": 5969,
      "determining": 5970,
      "octop": 5971,
      "breathe": 5972,
      "winner": 5973,
      "numbering": 5974,
      "includes": 5975,
      "assigned": 5976,
      "colder": 5977,
      "consists": 5978,
      "skills": 5979,
      "collapsing": 5980,
      "collapses": 5981,
      "papers": 5982,
      "ladle": 5983,
      "sloping": 5984,
      "corrects": 5985,
      "mustache": 5986,
      "interpre": 5987,
      "intervenes": 5988,
      "meaningful": 5989,
      "brandishing": 5990,
      "rescuing": 5991,
      "rescues": 5992,
      "induces": 5993,
      "opposes": 5994,
      "encourages": 5995,
      "encouraging": 5996,
      "frustration": 5997,
      "minutely": 5998,
      "possib": 5999,
      "completes": 6000,
      "recalling": 6001,
      "tipping": 6002,
      "sprays": 6003,
      "revealed": 6004,
      "accesses": 6005,
      "proposal": 6006,
      "exhaled": 6007,
      "curved": 6008,
      "curvy": 6009,
      "fearfulness": 6010,
      "whistles": 6011,
      "pleads": 6012,
      "complementing": 6013,
      "gazing": 6014,
      "kissing": 6015,
      "thieves": 6016,
      "claimed": 6017,
      "unconsc": 6018,
      "permits": 6019,
      "observing": 6020,
      "markings": 6021,
      "people": 6022,
      "thatpobyis": 6023,
      "volunt": 6024,
      "applaud": 6025,
      "humor": 6026,
      "confirming": 6027,
      "functions": 6028,
      "suffer": 6029,
      "overdoes": 6030,
      "celebrate": 6031,
      "regret": 6032,
      "regrets": 6033,
      "seventeen": 6034,
      "credible": 6035,
      "crowing": 6036,
      "risk": 6037,
      "rids": 6038,
      "shortly": 6039,
      "safer": 6040,
      "improve": 6041,
      "submerge": 6042,
      "supper": 6043,
      "supporter": 6044,
      "encounter": 6045,
      "encountered": 6046,
      "averts": 6047,
      "awards": 6048,
      "cherries": 6049,
      "crisis": 6050,
      "creative": 6051,
      "faded": 6052,
      "films": 6053,
      "garage": 6054,
      "maintains": 6055,
      "pajam": 6056,
      "rhyth": 6057,
      "ripe": 6058,
      "sacred": 6059,
      "signs": 6060,
      "thermometer": 6061,
      "tosses": 6062,
      "pororosmiles": 6063,
      "steadily": 6064,
      "shrugging": 6065,
      "smudges": 6066,
      "outdoors": 6067,
      "abashed": 6068,
      "exercising": 6069,
      "overworking": 6070,
      "helplessly": 6071,
      "goalkeeper": 6072,
      "instruction": 6073,
      "period": 6074,
      "speechless": 6075,
      "octopus": 6076,
      "interprets": 6077,
      "possibility": 6078,
      "unconsciously": 6079,
      "volunteers": 6080,
      "pajama": 6081,
      "rhythm": 6082,
      "bun": 6083,
      "crou": 6084,
      "fence": 6085,
      "goo": 6086,
      "hut": 6087,
      "jean": 6088,
      "nave": 6089,
      "nicer": 6090,
      "rag": 6091,
      "till": 6092,
      "ties": 6093,
      "zoo": 6094,
      "##cess": 6095,
      "##how": 6096,
      "##iator": 6097,
      "##rank": 6098,
      "##fy": 6099,
      "##zy": 6100,
      "thunder": 6101,
      "these": 6102,
      "posed": 6103,
      "##arks": 6104,
      "inner": 6105,
      "##andon": 6106,
      "histo": 6107,
      "##acelet": 6108,
      "##asizes": 6109,
      "##orks": 6110,
      "shrank": 6111,
      "cozy": 6112,
      "##sting": 6113,
      "selec": 6114,
      "##unate": 6115,
      "flutt": 6116,
      "clever": 6117,
      "abandon": 6118,
      "sparks": 6119,
      "backed": 6120,
      "whatever": 6121,
      "lived": 6122,
      "disjo": 6123,
      "lever": 6124,
      "novel": 6125,
      "winding": 6126,
      "explos": 6127,
      "bracelet": 6128,
      "paining": 6129,
      "anyhow": 6130,
      "boosting": 6131,
      "bakes": 6132,
      "process": 6133,
      "passion": 6134,
      "##quently": 6135,
      "snoring": 6136,
      "aviator": 6137,
      "knew": 6138,
      "serve": 6139,
      "spiders": 6140,
      "layers": 6141,
      "fireworks": 6142,
      "consisted": 6143,
      "frequently": 6144,
      "competition": 6145,
      "##rical": 6146,
      "goalposts": 6147,
      "confesses": 6148,
      "concerns": 6149,
      "unfortunate": 6150,
      "flattening": 6151,
      "remained": 6152,
      "march": 6153,
      "created": 6154,
      "positively": 6155,
      "experiences": 6156,
      "reassure": 6157,
      "forgives": 6158,
      "emphasizes": 6159,
      "bunches": 6160,
      "crouching": 6161,
      "goofy": 6162,
      "navel": 6163,
      "historical": 6164,
      "selected": 6165,
      "flutters": 6166,
      "abandons": 6167,
      "disjoint": 6168,
      "explosion": 6169,
      "ep": 6170,
      "gir": 6171,
      "lap": 6172,
      "nap": 6173,
      "nail": 6174,
      "rand": 6175,
      "rings": 6176,
      "sets": 6177,
      "vac": 6178,
      "##uate": 6179,
      "##house": 6180,
      "##ments": 6181,
      "##ode": 6182,
      "##robat": 6183,
      "##rehouse": 6184,
      "##isode": 6185,
      "pobyhad": 6186,
      "role": 6187,
      "##omly": 6188,
      "stiff": 6189,
      "##ident": 6190,
      "##aluate": 6191,
      "seating": 6192,
      "ups": 6193,
      "soars": 6194,
      "exact": 6195,
      "warehouse": 6196,
      "himeddy": 6197,
      "fired": 6198,
      "darken": 6199,
      "goodness": 6200,
      "hates": 6201,
      "##bbler": 6202,
      "brother": 6203,
      "movements": 6204,
      "acrobat": 6205,
      "sharp": 6206,
      "restric": 6207,
      "attaching": 6208,
      "scribbler": 6209,
      "magnets": 6210,
      "performs": 6211,
      "reflects": 6212,
      "bouncing": 6213,
      "emitting": 6214,
      "washed": 6215,
      "giggles": 6216,
      "tpobyice": 6217,
      "focusing": 6218,
      "violin": 6219,
      "evident": 6220,
      "evaluate": 6221,
      "shrinking": 6222,
      "zooms": 6223,
      "zooming": 6224,
      "episode": 6225,
      "girl": 6226,
      "randomly": 6227,
      "vacantly": 6228,
      "exactly": 6229,
      "acrobatic": 6230,
      "restricted": 6231
    }
  }
}