{
  "version": "1.0",
  "truncation": null,
  "padding": null,
  "added_tokens": [
    {
      "id": 0,
      "content": "[UNK]",
      "single_word": false,
      "lstrip": false,
      "rstrip": false,
      "normalized": false,
      "special": true
    },
    {
      "id": 1,
      "content": "[PAD]",
      "single_word": false,
      "lstrip": false,
      "rstrip": false,
      "normalized": false,
      "special": true
    },
    {
      "id": 2,
      "content": "[CLS]",
      "single_word": false,
      "lstrip": false,
      "rstrip": false,
      "normalized": false,
      "special": true
    },
    {
      "id": 3,
      "content": "[SEP]",
      "single_word": false,
      "lstrip": false,
      "rstrip": false,
      "normalized": false,
      "special": true
    },
    {
      "id": 4,
      "content": "[MASK]",
      "single_word": false,
      "lstrip": false,
      "rstrip": false,
      "normalized": false,
      "special": true
    }
  ],
  "normalizer": {
    "type": "Sequence",
    "normalizers": [
      {
        "type": "NFD"
      },
      {
        "type": "Lowercase"
      },
      {
        "type": "StripAccents"
      }
    ]
  },
  "pre_tokenizer": {
    "type": "BertPreTokenizer"
  },
  "post_processor": {
    "type": "TemplateProcessing",
    "single": [
      {
        "SpecialToken": {
          "id": "[CLS]",
          "type_id": 0
        }
      },
      {
        "Sequence": {
          "id": "A",
          "type_id": 0
        }
      },
      {
        "SpecialToken": {
          "id": "[SEP]",
          "type_id": 0
        }
      }
    ],
    "pair": [
      {
        "SpecialToken": {
          "id": "[CLS]",
          "type_id": 0
        }
      },
      {
        "Sequence": {
          "id": "A",
          "type_id": 0
        }
      },
      {
        "SpecialToken": {
          "id": "[SEP]",
          "type_id": 0
        }
      },
      {
        "Sequence": {
          "id": "B",
          "type_id": 1
        }
      },
      {
        "SpecialToken": {
          "id": "[SEP]",
          "type_id": 1
        }
      }
    ],
    "special_tokens": {
      "[CLS]": {
        "id": "[CLS]",
        "ids": [
          2
        ],
        "tokens": [
          "[CLS]"
        ]
      },
      "[SEP]": {
        "id": "[SEP]",
        "ids": [
          3
        ],
        "tokens": [
          "[SEP]"
        ]
      }
    }
  },
  "decoder": {
    "type": "WordPiece",
    "prefix": "##",
    "cleanup": true
  },
  "model": {
    "type": "WordPiece",
    "unk_token": "[UNK]",
    "continuing_subword_prefix": "##",
    "max_input_chars_per_word": 100,
    "vocab": {
      "[UNK]": 0,
      "[PAD]": 1,
      "[CLS]": 2,
      "[SEP]": 3,
      "[MASK]": 4,
      "'": 5,
      "-": 6,
      ".": 7,
      "2": 8,
      "3": 9,
      "4": 10,
      "5": 11,
      "8": 12,
      "a": 13,
      "b": 14,
      "c": 15,
      "d": 16,
      "e": 17,
      "f": 18,
      "g": 19,
      "h": 20,
      "i": 21,
      "j": 22,
      "k": 23,
      "l": 24,
      "m": 25,
      "n": 26,
      "o": 27,
      "p": 28,
      "q": 29,
      "r": 30,
      "s": 31,
      "t": 32,
      "u": 33,
      "v": 34,
      "w": 35,
      "x": 36,
      "y": 37,
      "z": 38,
      "##h": 39,
      "##e": 40,
      "##m": 41,
      "##p": 42,
      "##r": 43,
      "##i": 44,
      "##n": 45,
      "##k": 46,
      "##l": 47,
      "##f": 48,
      "##u": 49,
      "##s": 50,
      "##d": 51,
      "##a": 52,
      "##v": 53,
      "##c": 54,
      "##o": 55,
      "##z": 56,
      "##y": 57,
      "##g": 58,
      "##t": 59,
      "##w": 60,
      "##b": 61,
      "##x": 62,
      "##q": 63,
      "##j": 64,
      "##ro": 65,
      "##ng": 66,
      "th": 67,
      "##nd": 68,
      "the": 69,
      "po": 70,
      "##ing": 71,
      "is": 72,
      "and": 73,
      "##re": 74,
      "##oo": 75,
      "to": 76,
      "##roro": 77,
      "pororo": 78,
      "##dy": 79,
      "loo": 80,
      "##es": 81,
      "##rong": 82,
      "crong": 83,
      "ed": 84,
      "eddy": 85,
      "##ar": 86,
      "##er": 87,
      "##et": 88,
      "##is": 89,
      "##ed": 90,
      "##py": 91,
      "##at": 92,
      "##ow": 93,
      "loopy": 94,
      "##ll": 95,
      "##by": 96,
      "are": 97,
      "poby": 98,
      "in": 99,
      "##ou": 100,
      "on": 101,
      "##it": 102,
      "##ry": 103,
      "##le": 104,
      "##ri": 105,
      "##and": 106,
      "##ks": 107,
      "##ett": 108,
      "##ay": 109,
      "ro": 110,
      "of": 111,
      "his": 112,
      "pett": 113,
      "petty": 114,
      "##in": 115,
      "##en": 116,
      "##now": 117,
      "##om": 118,
      "##ea": 119,
      "st": 120,
      "har": 121,
      "snow": 122,
      "harry": 123,
      "##se": 124,
      "##king": 125,
      "wit": 126,
      "with": 127,
      "##ac": 128,
      "rody": 129,
      "##on": 130,
      "at": 131,
      "##id": 132,
      "##as": 133,
      "##ut": 134,
      "##ve": 135,
      "##an": 136,
      "wh": 137,
      "##al": 138,
      "##nds": 139,
      "that": 140,
      "##to": 141,
      "fri": 142,
      "frie": 143,
      "##ld": 144,
      "fro": 145,
      "be": 146,
      "##ig": 147,
      "friends": 148,
      "say": 149,
      "##ur": 150,
      "##hing": 151,
      "hou": 152,
      "house": 153,
      "##all": 154,
      "##red": 155,
      "##rou": 156,
      "##ic": 157,
      "there": 158,
      "hand": 159,
      "##or": 160,
      "sh": 161,
      "bl": 162,
      "##ot": 163,
      "co": 164,
      "tong": 165,
      "##tong": 166,
      "tongtong": 167,
      "##ly": 168,
      "som": 169,
      "##round": 170,
      "##ind": 171,
      "##vered": 172,
      "covered": 173,
      "sk": 174,
      "##ead": 175,
      "car": 176,
      "##ir": 177,
      "it": 178,
      "##nt": 179,
      "##old": 180,
      "as": 181,
      "says": 182,
      "sm": 183,
      "sky": 184,
      "looks": 185,
      "##her": 186,
      "##ue": 187,
      "##ide": 188,
      "hold": 189,
      "##st": 190,
      "tal": 191,
      "##ad": 192,
      "##ht": 193,
      "blue": 194,
      "##ook": 195,
      "##ke": 196,
      "se": 197,
      "##ap": 198,
      "her": 199,
      "up": 200,
      "##il": 201,
      "##ch": 202,
      "somet": 203,
      "something": 204,
      "cl": 205,
      "they": 206,
      "##ts": 207,
      "out": 208,
      "head": 209,
      "##ell": 210,
      "go": 211,
      "red": 212,
      "looking": 213,
      "front": 214,
      "##ain": 215,
      "pl": 216,
      "##un": 217,
      "##ver": 218,
      "ta": 219,
      "##ile": 220,
      "##ack": 221,
      "stand": 222,
      "fl": 223,
      "##urp": 224,
      "##ting": 225,
      "##oor": 226,
      "com": 227,
      "##ris": 228,
      "##out": 229,
      "##ag": 230,
      "##ight": 231,
      "tre": 232,
      "##el": 233,
      "for": 234,
      "smil": 235,
      "beh": 236,
      "su": 237,
      "##im": 238,
      "##ear": 239,
      "hands": 240,
      "behind": 241,
      "##ill": 242,
      "from": 243,
      "##own": 244,
      "##ble": 245,
      "around": 246,
      "##am": 247,
      "surp": 248,
      "surpris": 249,
      "cle": 250,
      "##ore": 251,
      "down": 252,
      "ch": 253,
      "bo": 254,
      "by": 255,
      "##ft": 256,
      "##ood": 257,
      "while": 258,
      "holding": 259,
      "surprised": 260,
      "ab": 261,
      "do": 262,
      "sit": 263,
      "##au": 264,
      "an": 265,
      "##ace": 266,
      "al": 267,
      "##urn": 268,
      "door": 269,
      "wal": 270,
      "##ck": 271,
      "##ers": 272,
      "##ep": 273,
      "run": 274,
      "sp": 275,
      "about": 276,
      "talking": 277,
      "clo": 278,
      "trees": 279,
      "get": 280,
      "standing": 281,
      "so": 282,
      "back": 283,
      "turn": 284,
      "ju": 285,
      "##one": 286,
      "##ion": 287,
      "##ves": 288,
      "fis": 289,
      "not": 290,
      "ex": 291,
      "##ies": 292,
      "clear": 293,
      "##ther": 294,
      "ar": 295,
      "##ie": 296,
      "table": 297,
      "has": 298,
      "##ach": 299,
      "##pen": 300,
      "other": 301,
      "hap": 302,
      "wa": 303,
      "toy": 304,
      "them": 305,
      "##ark": 306,
      "all": 307,
      "book": 308,
      "asks": 309,
      "ground": 310,
      "##kes": 311,
      "sitting": 312,
      "look": 313,
      "ball": 314,
      "land": 315,
      "##ce": 316,
      "see": 317,
      "##ving": 318,
      "sl": 319,
      "what": 320,
      "some": 321,
      "talks": 322,
      "##ere": 323,
      "fore": 324,
      "##ip": 325,
      "was": 326,
      "cook": 327,
      "pig": 328,
      "##ning": 329,
      "open": 330,
      "##pp": 331,
      "star": 332,
      "play": 333,
      "ey": 334,
      "##ave": 335,
      "dr": 336,
      "put": 337,
      "##us": 338,
      "##ms": 339,
      "##way": 340,
      "holds": 341,
      "##ard": 342,
      "can": 343,
      "tell": 344,
      "##ate": 345,
      "##side": 346,
      "##atch": 347,
      "their": 348,
      "##ent": 349,
      "smiles": 350,
      "bec": 351,
      "##mp": 352,
      "turns": 353,
      "forest": 354,
      "ne": 355,
      "##ant": 356,
      "him": 357,
      "##ame": 358,
      "face": 359,
      "fi": 360,
      "away": 361,
      "saying": 362,
      "rea": 363,
      "li": 364,
      "sc": 365,
      "##ether": 366,
      "ma": 367,
      "fly": 368,
      "bes": 369,
      "but": 370,
      "ag": 371,
      "wood": 372,
      "##po": 373,
      "happy": 374,
      "tri": 375,
      "##utu": 376,
      "bed": 377,
      "dis": 378,
      "tutu": 379,
      "##res": 380,
      "le": 381,
      "##pl": 382,
      "right": 383,
      "no": 384,
      "gre": 385,
      "ever": 386,
      "smiling": 387,
      "##ec": 388,
      "every": 389,
      "beside": 390,
      "flying": 391,
      "wind": 392,
      "##gg": 393,
      "into": 394,
      "##ass": 395,
      "gets": 396,
      "walking": 397,
      "box": 398,
      "mo": 399,
      "gi": 400,
      "##aw": 401,
      "##iding": 402,
      "then": 403,
      "sto": 404,
      "call": 405,
      "##lly": 406,
      "app": 407,
      "##ause": 408,
      "because": 409,
      "ang": 410,
      "##ward": 411,
      "##ich": 412,
      "fe": 413,
      "wor": 414,
      "jump": 415,
      "drag": 416,
      "each": 417,
      "cookies": 418,
      "snowed": 419,
      "tog": 420,
      "together": 421,
      "##est": 422,
      "##ous": 423,
      "##dd": 424,
      "comes": 425,
      "running": 426,
      "one": 427,
      "tells": 428,
      "##ould": 429,
      "##ound": 430,
      "dragon": 431,
      "##so": 432,
      "also": 433,
      "everyone": 434,
      "left": 435,
      "flow": 436,
      "big": 437,
      "eyes": 438,
      "##ra": 439,
      "mon": 440,
      "cat": 441,
      "tw": 442,
      "window": 443,
      "clock": 444,
      "wooden": 445,
      "##gh": 446,
      "sled": 447,
      "thin": 448,
      "tries": 449,
      "show": 450,
      "con": 451,
      "fish": 452,
      "angry": 453,
      "##ght": 454,
      "sle": 455,
      "now": 456,
      "##ast": 457,
      "poin": 458,
      "got": 459,
      "green": 460,
      "fishing": 461,
      "sea": 462,
      "will": 463,
      "aft": 464,
      "pic": 465,
      "after": 466,
      "##ises": 467,
      "ra": 468,
      "##ings": 469,
      "sw": 470,
      "##ket": 471,
      "dark": 472,
      "rob": 473,
      "##ated": 474,
      "arms": 475,
      "robot": 476,
      "going": 477,
      "sha": 478,
      "like": 479,
      "wear": 480,
      "two": 481,
      "sa": 482,
      "shark": 483,
      "clos": 484,
      "##ains": 485,
      "find": 486,
      "hear": 487,
      "##ice": 488,
      "dri": 489,
      "roo": 490,
      "##rying": 491,
      "black": 492,
      "sugg": 493,
      "##ery": 494,
      "hill": 495,
      "puts": 496,
      "opens": 497,
      "##dden": 498,
      "feel": 499,
      "##ine": 500,
      "outside": 501,
      "sudden": 502,
      "very": 503,
      "##row": 504,
      "which": 505,
      "##air": 506,
      "have": 507,
      "##ating": 508,
      "if": 509,
      "##mb": 510,
      "##ps": 511,
      "expl": 512,
      "br": 513,
      "mad": 514,
      "##ching": 515,
      "##ted": 516,
      "over": 517,
      "yell": 518,
      "suddenly": 519,
      "wat": 520,
      "##ff": 521,
      "##key": 522,
      "monkey": 523,
      "read": 524,
      "##xt": 525,
      "walks": 526,
      "again": 527,
      "lea": 528,
      "re": 529,
      "##read": 530,
      "bas": 531,
      "mag": 532,
      "next": 533,
      "basket": 534,
      "tr": 535,
      "does": 536,
      "##ess": 537,
      "##nder": 538,
      "really": 539,
      "starts": 540,
      "##ush": 541,
      "##ick": 542,
      "yellow": 543,
      "gl": 544,
      "##ul": 545,
      "ca": 546,
      "coming": 547,
      "road": 548,
      "floor": 549,
      "seated": 550,
      "wearing": 551,
      "sees": 552,
      "who": 553,
      "room": 554,
      "magic": 555,
      "small": 556,
      "pir": 557,
      "pirate": 558,
      "exc": 559,
      "off": 560,
      "pie": 561,
      "come": 562,
      "this": 563,
      "sant": 564,
      "santa": 565,
      "sing": 566,
      "raises": 567,
      "toward": 568,
      "fin": 569,
      "boat": 570,
      "##per": 571,
      "how": 572,
      "##ure": 573,
      "good": 574,
      "wall": 575,
      "fo": 576,
      "ice": 577,
      "side": 578,
      "runs": 579,
      "##ount": 580,
      "lau": 581,
      "##ret": 582,
      "flowers": 583,
      "points": 584,
      "##ation": 585,
      "air": 586,
      "just": 587,
      "said": 588,
      "doll": 589,
      "tree": 590,
      "##ome": 591,
      "##ink": 592,
      "##nge": 593,
      "fix": 594,
      "##ests": 595,
      "##ist": 596,
      "##ane": 597,
      "butt": 598,
      "where": 599,
      "##igh": 600,
      "hat": 601,
      "##ches": 602,
      "sleep": 603,
      "cu": 604,
      "bu": 605,
      "##eep": 606,
      "##ds": 607,
      "pigs": 608,
      "##ides": 609,
      "bot": 610,
      "should": 611,
      "##idd": 612,
      "came": 613,
      "fall": 614,
      "than": 615,
      "reading": 616,
      "pip": 617,
      "##aces": 618,
      "pipi": 619,
      "calls": 620,
      "inside": 621,
      "finds": 622,
      "##ally": 623,
      "##ong": 624,
      "riding": 625,
      "##ved": 626,
      "appro": 627,
      "dec": 628,
      "waves": 629,
      "purp": 630,
      "##atches": 631,
      "disap": 632,
      "smile": 633,
      "mount": 634,
      "jumping": 635,
      "suggests": 636,
      "light": 637,
      "frog": 638,
      "snowing": 639,
      "popo": 640,
      "##etting": 641,
      "##ying": 642,
      "##sel": 643,
      "man": 644,
      "##oc": 645,
      "playing": 646,
      "##lla": 647,
      "stands": 648,
      "##iz": 649,
      "told": 650,
      "##ited": 651,
      "purple": 652,
      "under": 653,
      "wo": 654,
      "make": 655,
      "mout": 656,
      "sad": 657,
      "##ree": 658,
      "mouth": 659,
      "gat": 660,
      "##ty": 661,
      "##tion": 662,
      "##ants": 663,
      "qu": 664,
      "thinks": 665,
      "pict": 666,
      "##ull": 667,
      "##erf": 668,
      "##ress": 669,
      "seems": 670,
      "eye": 671,
      "ans": 672,
      "wants": 673,
      "throu": 674,
      "ask": 675,
      "through": 676,
      "midd": 677,
      "middle": 678,
      "flo": 679,
      "answ": 680,
      "hu": 681,
      "made": 682,
      "near": 683,
      "home": 684,
      "waving": 685,
      "cou": 686,
      "excited": 687,
      "##ried": 688,
      "##sing": 689,
      "know": 690,
      "##cc": 691,
      "keep": 692,
      "##bb": 693,
      "##tle": 694,
      "goes": 695,
      "sof": 696,
      "doesn": 697,
      "glass": 698,
      "bread": 699,
      "id": 700,
      "bro": 701,
      "hell": 702,
      "##ge": 703,
      "super": 704,
      "hello": 705,
      "##ny": 706,
      "##ish": 707,
      "scr": 708,
      "dish": 709,
      "sun": 710,
      "sofa": 711,
      "##ground": 712,
      "singing": 713,
      "ship": 714,
      "rod": 715,
      "arri": 716,
      "hiding": 717,
      "idea": 718,
      "playground": 719,
      "##ously": 720,
      "shakes": 721,
      "##poin": 722,
      "##ken": 723,
      "makes": 724,
      "did": 725,
      "floating": 726,
      "##oon": 727,
      "disappoin": 728,
      "couch": 729,
      "he": 730,
      "someone": 731,
      "pain": 732,
      "disappointed": 733,
      "##ered": 734,
      "found": 735,
      "##les": 736,
      "flies": 737,
      "butterf": 738,
      "##rilla": 739,
      "gorilla": 740,
      "cave": 741,
      "snowm": 742,
      "feels": 743,
      "tea": 744,
      "tim": 745,
      "broken": 746,
      "asking": 747,
      "##rist": 748,
      "eat": 749,
      "patch": 750,
      "##anc": 751,
      "moving": 752,
      "water": 753,
      "when": 754,
      "clean": 755,
      "jumps": 756,
      "explains": 757,
      "chair": 758,
      "pony": 759,
      "take": 760,
      "takes": 761,
      "worried": 762,
      "both": 763,
      "clou": 764,
      "che": 765,
      "place": 766,
      "di": 767,
      "row": 768,
      "sor": 769,
      "lit": 770,
      "sleeping": 771,
      "##range": 772,
      "cont": 773,
      "##hip": 774,
      "sorry": 775,
      "draw": 776,
      "flower": 777,
      "still": 778,
      "mu": 779,
      "##ang": 780,
      "##pe": 781,
      "little": 782,
      "any": 783,
      "##self": 784,
      "night": 785,
      "gr": 786,
      "trying": 787,
      "doing": 788,
      "snowman": 789,
      "de": 790,
      "lying": 791,
      "##oy": 792,
      "being": 793,
      "cookie": 794,
      "shows": 795,
      "##isten": 796,
      "##assed": 797,
      "gives": 798,
      "##ake": 799,
      "##bo": 800,
      "##lo": 801,
      "stops": 802,
      "##ied": 803,
      "chas": 804,
      "spaces": 805,
      "drin": 806,
      "picture": 807,
      "bit": 808,
      "danc": 809,
      "##ates": 810,
      "arm": 811,
      "##ield": 812,
      "emb": 813,
      "listen": 814,
      "mach": 815,
      "wand": 816,
      "##ball": 817,
      "machine": 818,
      "int": 819,
      "plane": 820,
      "spaceship": 821,
      "plate": 822,
      "watching": 823,
      "were": 824,
      "tou": 825,
      "hel": 826,
      "gift": 827,
      "body": 828,
      "##aught": 829,
      "laugh": 830,
      "sur": 831,
      "##llow": 832,
      "pull": 833,
      "time": 834,
      "##estion": 835,
      "un": 836,
      "##bs": 837,
      "##age": 838,
      "##ocks": 839,
      "##ping": 840,
      "why": 841,
      "swing": 842,
      "follow": 843,
      "par": 844,
      "##arr": 845,
      "hard": 846,
      "##ful": 847,
      "caught": 848,
      "snowy": 849,
      "stop": 850,
      "field": 851,
      "explain": 852,
      "##ily": 853,
      "clap": 854,
      "glasses": 855,
      "space": 856,
      "ok": 857,
      "new": 858,
      "lam": 859,
      "dancing": 860,
      "bet": 861,
      "embarr": 862,
      "ho": 863,
      "blocks": 864,
      "along": 865,
      "scratches": 866,
      "boo": 867,
      "would": 868,
      "##co": 869,
      "del": 870,
      "##een": 871,
      "curi": 872,
      "mountains": 873,
      "surround": 874,
      "piece": 875,
      "lamp": 876,
      "sound": 877,
      "too": 878,
      "stick": 879,
      "song": 880,
      "getting": 881,
      "##th": 882,
      "catch": 883,
      "approach": 884,
      "happen": 885,
      "##ious": 886,
      "sand": 887,
      "##bble": 888,
      "embarrassed": 889,
      "ba": 890,
      "##os": 891,
      "chasing": 892,
      "gra": 893,
      "finally": 894,
      "##mas": 895,
      "christ": 896,
      "answers": 897,
      "christmas": 898,
      "##rec": 899,
      "stret": 900,
      "help": 901,
      "himself": 902,
      "many": 903,
      "rel": 904,
      "##ost": 905,
      "##orm": 906,
      "moves": 907,
      "showing": 908,
      "closes": 909,
      "thanks": 910,
      "##ween": 911,
      "putting": 912,
      "give": 913,
      "between": 914,
      "pro": 915,
      "##ared": 916,
      "##wich": 917,
      "sandwich": 918,
      "or": 919,
      "team": 920,
      "##iff": 921,
      "##ling": 922,
      "story": 923,
      "well": 924,
      "bear": 925,
      "closer": 926,
      "finish": 927,
      "books": 928,
      "sou": 929,
      "heads": 930,
      "wait": 931,
      "surrounded": 932,
      "##uck": 933,
      "gather": 934,
      "sal": 935,
      "##nc": 936,
      "##ering": 937,
      "##ushes": 938,
      "more": 939,
      "making": 940,
      "pri": 941,
      "##ghing": 942,
      "##isf": 943,
      "##atisf": 944,
      "step": 945,
      "agre": 946,
      "hit": 947,
      "cliff": 948,
      "name": 949,
      "joy": 950,
      "##wh": 951,
      "strong": 952,
      "##ance": 953,
      "shaking": 954,
      "laughs": 955,
      "##ever": 956,
      "##other": 957,
      "sleigh": 958,
      "okay": 959,
      "goal": 960,
      "happ": 961,
      "start": 962,
      "however": 963,
      "##head": 964,
      "throw": 965,
      "##elf": 966,
      "another": 967,
      "spea": 968,
      "nods": 969,
      "you": 970,
      "##oice": 971,
      "cake": 972,
      "three": 973,
      "laughing": 974,
      "fast": 975,
      "hi": 976,
      "shoulder": 977,
      "fir": 978,
      "ha": 979,
      "here": 980,
      "##ets": 981,
      "wakes": 982,
      "nose": 983,
      "##ressed": 984,
      "curious": 985,
      "soup": 986,
      "##ster": 987,
      "whether": 988,
      "woods": 989,
      "friend": 990,
      "happily": 991,
      "din": 992,
      "ear": 993,
      "##ise": 994,
      "butterfly": 995,
      "ru": 996,
      "went": 997,
      "want": 998,
      "forward": 999,
      "pret": 1000,
      "vill": 1001,
      "spread": 1002,
      "hur": 1003,
      "##airs": 1004,
      "##fore": 1005,
      "having": 1006,
      "try": 1007,
      "telling": 1008,
      "move": 1009,
      "contin": 1010,
      "##atisfied": 1011,
      "first": 1012,
      "food": 1013,
      "hide": 1014,
      "##not": 1015,
      "cannot": 1016,
      "gray": 1017,
      "im": 1018,
      "pass": 1019,
      "care": 1020,
      "round": 1021,
      "pink": 1022,
      "##zen": 1023,
      "frozen": 1024,
      "walk": 1025,
      "socc": 1026,
      "asked": 1027,
      "soccer": 1028,
      "##ock": 1029,
      "roll": 1030,
      "swim": 1031,
      "##ares": 1032,
      "##where": 1033,
      "apple": 1034,
      "using": 1035,
      "strange": 1036,
      "opened": 1037,
      "am": 1038,
      "lot": 1039,
      "##fe": 1040,
      "top": 1041,
      "picks": 1042,
      "##ures": 1043,
      "##ove": 1044,
      "ent": 1045,
      "lake": 1046,
      "bat": 1047,
      "feeling": 1048,
      "me": 1049,
      "snowball": 1050,
      "scared": 1051,
      "think": 1052,
      "shap": 1053,
      "bye": 1054,
      "called": 1055,
      "##uc": 1056,
      "##uses": 1057,
      "happened": 1058,
      "continu": 1059,
      "ac": 1060,
      "brings": 1061,
      "agrees": 1062,
      "bubble": 1063,
      "satisfied": 1064,
      "##ite": 1065,
      "thinking": 1066,
      "train": 1067,
      "had": 1068,
      "##hered": 1069,
      "calling": 1070,
      "question": 1071,
      "##ring": 1072,
      "##ss": 1073,
      "##rea": 1074,
      "rem": 1075,
      "voice": 1076,
      "##ully": 1077,
      "##vers": 1078,
      "bag": 1079,
      "##plane": 1080,
      "swings": 1081,
      "airplane": 1082,
      "##qu": 1083,
      "stairs": 1084,
      "listening": 1085,
      "same": 1086,
      "en": 1087,
      "fr": 1088,
      "res": 1089,
      "its": 1090,
      "close": 1091,
      "gathered": 1092,
      "touches": 1093,
      "##ncess": 1094,
      "princess": 1095,
      "cr": 1096,
      "mom": 1097,
      "way": 1098,
      "##lies": 1099,
      "##alls": 1100,
      "alone": 1101,
      "others": 1102,
      "fing": 1103,
      "high": 1104,
      "##ream": 1105,
      "##aching": 1106,
      "compl": 1107,
      "##thing": 1108,
      "##icious": 1109,
      "##ears": 1110,
      "approaching": 1111,
      "bri": 1112,
      "bad": 1113,
      "we": 1114,
      "##uation": 1115,
      "##day": 1116,
      "situation": 1117,
      "monster": 1118,
      "conf": 1119,
      "decides": 1120,
      "mountain": 1121,
      "relie": 1122,
      "fa": 1123,
      "##lor": 1124,
      "color": 1125,
      "somewhere": 1126,
      "seesaw": 1127,
      "keeps": 1128,
      "old": 1129,
      "sits": 1130,
      "joyously": 1131,
      "imag": 1132,
      "moment": 1133,
      "heard": 1134,
      "leaving": 1135,
      "villain": 1136,
      "apo": 1137,
      "##room": 1138,
      "spot": 1139,
      "driver": 1140,
      "wond": 1141,
      "##log": 1142,
      "apolog": 1143,
      "low": 1144,
      "setting": 1145,
      "##aur": 1146,
      "overalls": 1147,
      "##osaur": 1148,
      "dinosaur": 1149,
      "bea": 1150,
      "mas": 1151,
      "##set": 1152,
      "pole": 1153,
      "pointing": 1154,
      "wonder": 1155,
      "war": 1156,
      "##act": 1157,
      "blin": 1158,
      "direc": 1159,
      "approaches": 1160,
      "##ming": 1161,
      "agree": 1162,
      "bring": 1163,
      "fold": 1164,
      "gig": 1165,
      "##ien": 1166,
      "##wn": 1167,
      "##ines": 1168,
      "nodd": 1169,
      "stretches": 1170,
      "saw": 1171,
      "thou": 1172,
      "gun": 1173,
      "exp": 1174,
      "##ven": 1175,
      "falling": 1176,
      "clapping": 1177,
      "bow": 1178,
      "##ange": 1179,
      "##omes": 1180,
      "drink": 1181,
      "wonders": 1182,
      "mis": 1183,
      "mea": 1184,
      "##ton": 1185,
      "things": 1186,
      "delicious": 1187,
      "before": 1188,
      "juice": 1189,
      "##led": 1190,
      "steps": 1191,
      "direction": 1192,
      "painting": 1193,
      "hea": 1194,
      "wings": 1195,
      "##antic": 1196,
      "gigantic": 1197,
      "game": 1198,
      "##tor": 1199,
      "belly": 1200,
      "leaves": 1201,
      "falls": 1202,
      "##fully": 1203,
      "cup": 1204,
      "##board": 1205,
      "hides": 1206,
      "pan": 1207,
      "tast": 1208,
      "clouds": 1209,
      "party": 1210,
      "##cei": 1211,
      "feet": 1212,
      "##reat": 1213,
      "##our": 1214,
      "forehead": 1215,
      "let": 1216,
      "##ross": 1217,
      "##rew": 1218,
      "stares": 1219,
      "plan": 1220,
      "could": 1221,
      "fell": 1222,
      "stic": 1223,
      "##amm": 1224,
      "wears": 1225,
      "arrives": 1226,
      "thought": 1227,
      "yes": 1228,
      "##ses": 1229,
      "##ird": 1230,
      "paw": 1231,
      "huge": 1232,
      "arrived": 1233,
      "relieved": 1234,
      "shelf": 1235,
      "above": 1236,
      "butterflies": 1237,
      "link": 1238,
      "##izes": 1239,
      "linked": 1240,
      "pres": 1241,
      "snows": 1242,
      "carrying": 1243,
      "chang": 1244,
      "explaining": 1245,
      "heav": 1246,
      "##min": 1247,
      "##az": 1248,
      "##ect": 1249,
      "gu": 1250,
      "hamm": 1251,
      "pre": 1252,
      "alien": 1253,
      "slide": 1254,
      "fixing": 1255,
      "##most": 1256,
      "colo": 1257,
      "almost": 1258,
      "colored": 1259,
      "cam": 1260,
      "dep": 1261,
      "line": 1262,
      "potion": 1263,
      "##era": 1264,
      "rope": 1265,
      "##ention": 1266,
      "need": 1267,
      "suggest": 1268,
      "##rown": 1269,
      "speaking": 1270,
      "nodding": 1271,
      "camera": 1272,
      "today": 1273,
      "string": 1274,
      "##cket": 1275,
      "##ept": 1276,
      "eating": 1277,
      "wrong": 1278,
      "fun": 1279,
      "lar": 1280,
      "ph": 1281,
      "rushes": 1282,
      "##if": 1283,
      "##ding": 1284,
      "##pped": 1285,
      "leg": 1286,
      "full": 1287,
      "thing": 1288,
      "##stand": 1289,
      "ready": 1290,
      "monkeys": 1291,
      "##bbing": 1292,
      "enj": 1293,
      "##ns": 1294,
      "pulls": 1295,
      "shoo": 1296,
      "shar": 1297,
      "clim": 1298,
      "turned": 1299,
      "becomes": 1300,
      "bigg": 1301,
      "hears": 1302,
      "leave": 1303,
      "ref": 1304,
      "cloudy": 1305,
      "orange": 1306,
      "ple": 1307,
      "rink": 1308,
      "vis": 1309,
      "work": 1310,
      "lowers": 1311,
      "masks": 1312,
      "##torm": 1313,
      "snowstorm": 1314,
      "prep": 1315,
      "large": 1316,
      "rec": 1317,
      "stu": 1318,
      "stay": 1319,
      "real": 1320,
      "word": 1321,
      "aliens": 1322,
      "eng": 1323,
      "sliding": 1324,
      "button": 1325,
      "swimming": 1326,
      "engine": 1327,
      "##itch": 1328,
      "##bye": 1329,
      "goodbye": 1330,
      "much": 1331,
      "anything": 1332,
      "base": 1333,
      "mush": 1334,
      "comp": 1335,
      "sharks": 1336,
      "mushroom": 1337,
      "##ining": 1338,
      "finger": 1339,
      "present": 1340,
      "brown": 1341,
      "sn": 1342,
      "only": 1343,
      "##anket": 1344,
      "blanket": 1345,
      "##ushing": 1346,
      "understand": 1347,
      "rolling": 1348,
      "engineer": 1349,
      "pin": 1350,
      "prou": 1351,
      "##bin": 1352,
      "taking": 1353,
      "nothing": 1354,
      "recei": 1355,
      "cabin": 1356,
      "drawing": 1357,
      "proud": 1358,
      "moon": 1359,
      "##son": 1360,
      "looked": 1361,
      "roof": 1362,
      "pretty": 1363,
      "acc": 1364,
      "rest": 1365,
      "##ided": 1366,
      "##elt": 1367,
      "turning": 1368,
      "notic": 1369,
      "closed": 1370,
      "amaz": 1371,
      "##ase": 1372,
      "##rod": 1373,
      "introd": 1374,
      "part": 1375,
      "pra": 1376,
      "hung": 1377,
      "day": 1378,
      "kick": 1379,
      "took": 1380,
      "##ened": 1381,
      "reason": 1382,
      "long": 1383,
      "##ike": 1384,
      "##og": 1385,
      "fox": 1386,
      "fru": 1387,
      "depressed": 1388,
      "visit": 1389,
      "dro": 1390,
      "frying": 1391,
      "ran": 1392,
      "watch": 1393,
      "cover": 1394,
      "alrea": 1395,
      "pictures": 1396,
      "##ocked": 1397,
      "introduc": 1398,
      "already": 1399,
      "four": 1400,
      "kitch": 1401,
      "soon": 1402,
      "##umb": 1403,
      "##ces": 1404,
      "skating": 1405,
      "greets": 1406,
      "##ffl": 1407,
      "requ": 1408,
      "muffl": 1409,
      "bright": 1410,
      "kitchen": 1411,
      "av": 1412,
      "pal": 1413,
      "##sed": 1414,
      "stage": 1415,
      "likes": 1416,
      "paint": 1417,
      "fight": 1418,
      "mor": 1419,
      "bel": 1420,
      "opening": 1421,
      "bucket": 1422,
      "ord": 1423,
      "taste": 1424,
      "morning": 1425,
      "kn": 1426,
      "upset": 1427,
      "stopped": 1428,
      "spreads": 1429,
      "wondering": 1430,
      "##ness": 1431,
      "##anch": 1432,
      "bigger": 1433,
      "mic": 1434,
      "##um": 1435,
      "shou": 1436,
      "sure": 1437,
      "except": 1438,
      "##cope": 1439,
      "rep": 1440,
      "##atching": 1441,
      "##ents": 1442,
      "chec": 1443,
      "backward": 1444,
      "scratching": 1445,
      "cleaning": 1446,
      "##ins": 1447,
      "##be": 1448,
      "waiting": 1449,
      "vir": 1450,
      "##ive": 1451,
      "talk": 1452,
      "staring": 1453,
      "tried": 1454,
      "appears": 1455,
      "closing": 1456,
      "suggestion": 1457,
      "dev": 1458,
      "finished": 1459,
      "viruses": 1460,
      "coo": 1461,
      "pers": 1462,
      "##light": 1463,
      "post": 1464,
      "##rowave": 1465,
      "quick": 1466,
      "answer": 1467,
      "hits": 1468,
      "meet": 1469,
      "express": 1470,
      "climb": 1471,
      "pleas": 1472,
      "microwave": 1473,
      "foo": 1474,
      "nice": 1475,
      "##book": 1476,
      "inv": 1477,
      "stre": 1478,
      "white": 1479,
      "rais": 1480,
      "shaped": 1481,
      "catches": 1482,
      "faces": 1483,
      "felt": 1484,
      "##are": 1485,
      "att": 1486,
      "##erest": 1487,
      "complim": 1488,
      "folds": 1489,
      "last": 1490,
      "##oke": 1491,
      "handle": 1492,
      "brush": 1493,
      "pieces": 1494,
      "passing": 1495,
      "carefully": 1496,
      "stuff": 1497,
      "quickly": 1498,
      "cand": 1499,
      "norm": 1500,
      "plast": 1501,
      "truck": 1502,
      "didn": 1503,
      "grabs": 1504,
      "across": 1505,
      "belie": 1506,
      "ti": 1507,
      "inst": 1508,
      "rock": 1509,
      "##inning": 1510,
      "##ening": 1511,
      "check": 1512,
      "hole": 1513,
      "gathering": 1514,
      "shape": 1515,
      "blinking": 1516,
      "checks": 1517,
      "bird": 1518,
      "per": 1519,
      "##ize": 1520,
      "interest": 1521,
      "finishes": 1522,
      "booksh": 1523,
      "tel": 1524,
      "##escope": 1525,
      "##leep": 1526,
      "shining": 1527,
      "asleep": 1528,
      "decided": 1529,
      "bite": 1530,
      "muffler": 1531,
      "telescope": 1532,
      "ad": 1533,
      "wrist": 1534,
      "without": 1535,
      "##ash": 1536,
      "fright": 1537,
      "nod": 1538,
      "##ished": 1539,
      "bett": 1540,
      "bike": 1541,
      "##iet": 1542,
      "been": 1543,
      "skates": 1544,
      "clau": 1545,
      "##ggy": 1546,
      "jumped": 1547,
      "foggy": 1548,
      "pulling": 1549,
      "fields": 1550,
      "throws": 1551,
      "amazed": 1552,
      "street": 1553,
      "better": 1554,
      "claus": 1555,
      "race": 1556,
      "yaw": 1557,
      "##eel": 1558,
      "snowboard": 1559,
      "##ightly": 1560,
      "exch": 1561,
      "balloon": 1562,
      "convers": 1563,
      "hearing": 1564,
      "spreading": 1565,
      "conversation": 1566,
      "ea": 1567,
      "own": 1568,
      "tail": 1569,
      "lif": 1570,
      "##bbles": 1571,
      "following": 1572,
      "suggested": 1573,
      "easel": 1574,
      "far": 1575,
      "sin": 1576,
      "blow": 1577,
      "waist": 1578,
      "scri": 1579,
      "drinks": 1580,
      "prete": 1581,
      "confid": 1582,
      "det": 1583,
      "imp": 1584,
      "opp": 1585,
      "##ild": 1586,
      "wheel": 1587,
      "##orrow": 1588,
      "shad": 1589,
      "shout": 1590,
      "shocked": 1591,
      "aston": 1592,
      "board": 1593,
      "boxes": 1594,
      "thank": 1595,
      "quiet": 1596,
      "astonished": 1597,
      "aim": 1598,
      "til": 1599,
      "##ough": 1600,
      "plates": 1601,
      "best": 1602,
      "conc": 1603,
      "heavy": 1604,
      "bookshelf": 1605,
      "tra": 1606,
      "##oying": 1607,
      "##ron": 1608,
      "inc": 1609,
      "fruit": 1610,
      "trail": 1611,
      "brou": 1612,
      "dream": 1613,
      "##ries": 1614,
      "chest": 1615,
      "seeing": 1616,
      "scar": 1617,
      "twice": 1618,
      "fail": 1619,
      "imagines": 1620,
      "brought": 1621,
      "##ped": 1622,
      "##ination": 1623,
      "safe": 1624,
      "##body": 1625,
      "delight": 1626,
      "salty": 1627,
      "weat": 1628,
      "deter": 1629,
      "hoo": 1630,
      "##sc": 1631,
      "##dent": 1632,
      "##etch": 1633,
      "sketch": 1634,
      "pick": 1635,
      "leaf": 1636,
      "chee": 1637,
      "lots": 1638,
      "bowl": 1639,
      "sticks": 1640,
      "drops": 1641,
      "raising": 1642,
      "shadow": 1643,
      "sketchbook": 1644,
      "ser": 1645,
      "##ner": 1646,
      "##ette": 1647,
      "stone": 1648,
      "whis": 1649,
      "greet": 1650,
      "few": 1651,
      "sandwiches": 1652,
      "salt": 1653,
      "palette": 1654,
      "mer": 1655,
      "map": 1656,
      "vase": 1657,
      "forg": 1658,
      "started": 1659,
      "basketball": 1660,
      "keeper": 1661,
      "continually": 1662,
      "continuously": 1663,
      "enjoying": 1664,
      "foot": 1665,
      "candy": 1666,
      "##more": 1667,
      "##ale": 1668,
      "tom": 1669,
      "##oud": 1670,
      "whale": 1671,
      "smell": 1672,
      "##iling": 1673,
      "flas": 1674,
      "anymore": 1675,
      "gate": 1676,
      "kic": 1677,
      "mess": 1678,
      "ride": 1679,
      "##mon": 1680,
      "##ned": 1681,
      "##ute": 1682,
      "##ort": 1683,
      "worrying": 1684,
      "glad": 1685,
      "arrive": 1686,
      "swinging": 1687,
      "claps": 1688,
      "ears": 1689,
      "changed": 1690,
      "##lights": 1691,
      "pleased": 1692,
      "tired": 1693,
      "ahead": 1694,
      "dressed": 1695,
      "even": 1696,
      "gest": 1697,
      "##cu": 1698,
      "block": 1699,
      "trident": 1700,
      "decide": 1701,
      "rubs": 1702,
      "missing": 1703,
      "devil": 1704,
      "brea": 1705,
      "eff": 1706,
      "min": 1707,
      "umb": 1708,
      "##rella": 1709,
      "ski": 1710,
      "slightly": 1711,
      "fire": 1712,
      "unif": 1713,
      "stretching": 1714,
      "earth": 1715,
      "hammer": 1716,
      "avo": 1717,
      "merry": 1718,
      "umbrella": 1719,
      "count": 1720,
      "des": 1721,
      "end": 1722,
      "hang": 1723,
      "watches": 1724,
      "##pping": 1725,
      "great": 1726,
      "branch": 1727,
      "disapp": 1728,
      "hug": 1729,
      "speaks": 1730,
      "shouts": 1731,
      "weather": 1732,
      "fan": 1733,
      "##iously": 1734,
      "##ose": 1735,
      "##owly": 1736,
      "beg": 1737,
      "smoke": 1738,
      "slowly": 1739,
      "become": 1740,
      "seal": 1741,
      "knows": 1742,
      "prom": 1743,
      "beaut": 1744,
      "blinks": 1745,
      "praises": 1746,
      "normal": 1747,
      "plasters": 1748,
      "adm": 1749,
      "dom": 1750,
      "don": 1751,
      "##rap": 1752,
      "##ino": 1753,
      "wake": 1754,
      "share": 1755,
      "demon": 1756,
      "follows": 1757,
      "domino": 1758,
      "cor": 1759,
      "hair": 1760,
      "pu": 1761,
      "pat": 1762,
      "##ol": 1763,
      "##ges": 1764,
      "seem": 1765,
      "fishes": 1766,
      "dishes": 1767,
      "kicked": 1768,
      "bal": 1769,
      "esc": 1770,
      "lies": 1771,
      "ret": 1772,
      "##eared": 1773,
      "stri": 1774,
      "seed": 1775,
      "char": 1776,
      "plays": 1777,
      "disc": 1778,
      "driving": 1779,
      "badmin": 1780,
      "spotlights": 1781,
      "planet": 1782,
      "receives": 1783,
      "persu": 1784,
      "frightened": 1785,
      "flask": 1786,
      "escap": 1787,
      "return": 1788,
      "badminton": 1789,
      "may": 1790,
      "mir": 1791,
      "pr": 1792,
      "##ror": 1793,
      "threat": 1794,
      "##lec": 1795,
      "spe": 1796,
      "##ately": 1797,
      "diff": 1798,
      "grabbing": 1799,
      "gathers": 1800,
      "guess": 1801,
      "instead": 1802,
      "shouted": 1803,
      "determin": 1804,
      "mirror": 1805,
      "diz": 1806,
      "##ru": 1807,
      "##ls": 1808,
      "##vi": 1809,
      "##ze": 1810,
      "##get": 1811,
      "##omach": 1812,
      "##ign": 1813,
      "five": 1814,
      "strongly": 1815,
      "careful": 1816,
      "mushrooms": 1817,
      "notices": 1818,
      "uniform": 1819,
      "dizz": 1820,
      "burn": 1821,
      "mark": 1822,
      "##ely": 1823,
      "##land": 1824,
      "island": 1825,
      "spid": 1826,
      "soap": 1827,
      "##used": 1828,
      "lift": 1829,
      "hurry": 1830,
      "repe": 1831,
      "confident": 1832,
      "emp": 1833,
      "oc": 1834,
      "pushing": 1835,
      "##its": 1836,
      "clen": 1837,
      "notice": 1838,
      "balls": 1839,
      "angel": 1840,
      "sleds": 1841,
      "sledding": 1842,
      "contro": 1843,
      "drawer": 1844,
      "deck": 1845,
      "introduces": 1846,
      "effect": 1847,
      "determined": 1848,
      "breat": 1849,
      "##ee": 1850,
      "##ean": 1851,
      "seco": 1852,
      "succ": 1853,
      "mail": 1854,
      "##ushed": 1855,
      "among": 1856,
      "legs": 1857,
      "refuses": 1858,
      "realizes": 1859,
      "spider": 1860,
      "success": 1861,
      "jo": 1862,
      "lost": 1863,
      "loud": 1864,
      "mist": 1865,
      "press": 1866,
      "spec": 1867,
      "eats": 1868,
      "drinking": 1869,
      "sticking": 1870,
      "tomorrow": 1871,
      "presses": 1872,
      "cry": 1873,
      "cast": 1874,
      "dou": 1875,
      "done": 1876,
      "deep": 1877,
      "gave": 1878,
      "wel": 1879,
      "##emb": 1880,
      "##tom": 1881,
      "stomach": 1882,
      "beha": 1883,
      "change": 1884,
      "bottom": 1885,
      "imagination": 1886,
      "lifts": 1887,
      "delighted": 1888,
      "dizzy": 1889,
      "ocean": 1890,
      "doub": 1891,
      "welc": 1892,
      "gone": 1893,
      "lay": 1894,
      "##ment": 1895,
      "##oto": 1896,
      "##unch": 1897,
      "sunset": 1898,
      "sleighs": 1899,
      "apologiz": 1900,
      "photo": 1901,
      "##raph": 1902,
      "##ked": 1903,
      "surprise": 1904,
      "baskets": 1905,
      "build": 1906,
      "touch": 1907,
      "baked": 1908,
      "enter": 1909,
      "snee": 1910,
      "partly": 1911,
      "avoid": 1912,
      "speed": 1913,
      "fur": 1914,
      "mind": 1915,
      "##iful": 1916,
      "##form": 1917,
      "##cle": 1918,
      "##xed": 1919,
      "##iny": 1920,
      "seen": 1921,
      "heading": 1922,
      "disco": 1923,
      "##ected": 1924,
      "hills": 1925,
      "cloud": 1926,
      "hops": 1927,
      "beautiful": 1928,
      "discus": 1929,
      "persuad": 1930,
      "empty": 1931,
      "dang": 1932,
      "ic": 1933,
      "oven": 1934,
      "##epy": 1935,
      "##loo": 1936,
      "##ust": 1937,
      "tor": 1938,
      "##att": 1939,
      "##rous": 1940,
      "therefore": 1941,
      "bobs": 1942,
      "arg": 1943,
      "reach": 1944,
      "giving": 1945,
      "sleepy": 1946,
      "##ular": 1947,
      "apologizes": 1948,
      "mean": 1949,
      "cheeks": 1950,
      "kicks": 1951,
      "cact": 1952,
      "fig": 1953,
      "passed": 1954,
      "win": 1955,
      "##uises": 1956,
      "##right": 1957,
      "##onent": 1958,
      "##onog": 1959,
      "##ical": 1960,
      "sever": 1961,
      "alright": 1962,
      "scen": 1963,
      "sailing": 1964,
      "bruises": 1965,
      "bottle": 1966,
      "touching": 1967,
      "unf": 1968,
      "startled": 1969,
      "fingers": 1970,
      "couldn": 1971,
      "phonog": 1972,
      "request": 1973,
      "order": 1974,
      "climbing": 1975,
      "opponent": 1976,
      "##vior": 1977,
      "behavior": 1978,
      "cactus": 1979,
      "phonograph": 1980,
      "numb": 1981,
      "pushes": 1982,
      "tied": 1983,
      "use": 1984,
      "##ife": 1985,
      "once": 1986,
      "chin": 1987,
      "spinning": 1988,
      "point": 1989,
      "##ult": 1990,
      "strongest": 1991,
      "exchange": 1992,
      "scribble": 1993,
      "incl": 1994,
      "stripe": 1995,
      "mistake": 1996,
      "hul": 1997,
      "op": 1998,
      "sign": 1999,
      "unt": 2000,
      "##he": 2001,
      "##ible": 2002,
      "##sh": 2003,
      "##lew": 2004,
      "##ined": 2005,
      "##inion": 2006,
      "frown": 2007,
      "##blem": 2008,
      "most": 2009,
      "worry": 2010,
      "working": 2011,
      "finding": 2012,
      "##bbling": 2013,
      "cleaner": 2014,
      "mumb": 2015,
      "problem": 2016,
      "hurt": 2017,
      "bath": 2018,
      "compliment": 2019,
      "believe": 2020,
      "interested": 2021,
      "since": 2022,
      "second": 2023,
      "hula": 2024,
      "opinion": 2025,
      "ig": 2026,
      "##sform": 2027,
      "##nding": 2028,
      "pot": 2029,
      "##acks": 2030,
      "##ansform": 2031,
      "fists": 2032,
      "everything": 2033,
      "leaning": 2034,
      "true": 2035,
      "transform": 2036,
      "woke": 2037,
      "covering": 2038,
      "cooking": 2039,
      "##ple": 2040,
      "##sp": 2041,
      "##ged": 2042,
      "##uring": 2043,
      "coll": 2044,
      "ass": 2045,
      "sear": 2046,
      "##aining": 2047,
      "ext": 2048,
      "arrow": 2049,
      "wave": 2050,
      "##ggling": 2051,
      "moved": 2052,
      "bump": 2053,
      "times": 2054,
      "crash": 2055,
      "shooting": 2056,
      "invention": 2057,
      "tilts": 2058,
      "begins": 2059,
      "speci": 2060,
      "icy": 2061,
      "tie": 2062,
      "##cret": 2063,
      "stuck": 2064,
      "secret": 2065,
      "herself": 2066,
      "sol": 2067,
      "##ips": 2068,
      "became": 2069,
      "noise": 2070,
      "faster": 2071,
      "passes": 2072,
      "questions": 2073,
      "changes": 2074,
      "hammering": 2075,
      "enjoy": 2076,
      "hungry": 2077,
      "hanging": 2078,
      "several": 2079,
      "gh": 2080,
      "mast": 2081,
      "mention": 2082,
      "stam": 2083,
      "cong": 2084,
      "plant": 2085,
      "forth": 2086,
      "showed": 2087,
      "needs": 2088,
      "breath": 2089,
      "ghost": 2090,
      "master": 2091,
      "aw": 2092,
      "band": 2093,
      "cir": 2094,
      "cross": 2095,
      "due": 2096,
      "page": 2097,
      "sigh": 2098,
      "por": 2099,
      "##ater": 2100,
      "##orts": 2101,
      "cheer": 2102,
      "bathroom": 2103,
      "ap": 2104,
      "crew": 2105,
      "den": 2106,
      "luck": 2107,
      "tap": 2108,
      "##asure": 2109,
      "shown": 2110,
      "##olds": 2111,
      "upside": 2112,
      "treasure": 2113,
      "susp": 2114,
      "##ames": 2115,
      "score": 2116,
      "scream": 2117,
      "painted": 2118,
      "chases": 2119,
      "recog": 2120,
      "requests": 2121,
      "gestures": 2122,
      "maybe": 2123,
      "photos": 2124,
      "recogn": 2125,
      "te": 2126,
      "##vor": 2127,
      "##ats": 2128,
      "##uth": 2129,
      "##ution": 2130,
      "exh": 2131,
      "never": 2132,
      "dist": 2133,
      "##gging": 2134,
      "catching": 2135,
      "truth": 2136,
      "cups": 2137,
      "superhe": 2138,
      "dinner": 2139,
      "confused": 2140,
      "favor": 2141,
      "mini": 2142,
      "balance": 2143,
      "clenches": 2144,
      "superhero": 2145,
      "hal": 2146,
      "lets": 2147,
      "rushing": 2148,
      "##rat": 2149,
      "ste": 2150,
      "cold": 2151,
      "worries": 2152,
      "windows": 2153,
      "hoops": 2154,
      "scene": 2155,
      "until": 2156,
      "congrat": 2157,
      "half": 2158,
      "congratul": 2159,
      "fac": 2160,
      "gard": 2161,
      "rides": 2162,
      "##ail": 2163,
      "##als": 2164,
      "gogg": 2165,
      "neck": 2166,
      "firew": 2167,
      "appeared": 2168,
      "cons": 2169,
      "raise": 2170,
      "magn": 2171,
      "whole": 2172,
      "draws": 2173,
      "##box": 2174,
      "beam": 2175,
      "warm": 2176,
      "knife": 2177,
      "garden": 2178,
      "bunch": 2179,
      "hic": 2180,
      "jail": 2181,
      "sides": 2182,
      "##bles": 2183,
      "##iss": 2184,
      "##utt": 2185,
      "bends": 2186,
      "cond": 2187,
      "fork": 2188,
      "sports": 2189,
      "slides": 2190,
      "stars": 2191,
      "apprec": 2192,
      "anger": 2193,
      "drives": 2194,
      "bubbles": 2195,
      "accep": 2196,
      "hugs": 2197,
      "recognize": 2198,
      "hiccu": 2199,
      "appreci": 2200,
      "pet": 2201,
      "##inds": 2202,
      "##dge": 2203,
      "##ction": 2204,
      "fist": 2205,
      "toys": 2206,
      "##antly": 2207,
      "conn": 2208,
      "answered": 2209,
      "agreed": 2210,
      "wanted": 2211,
      "enters": 2212,
      "compass": 2213,
      "threatening": 2214,
      "danger": 2215,
      "apron": 2216,
      "firewood": 2217,
      "bin": 2218,
      "dange": 2219,
      "fre": 2220,
      "hes": 2221,
      "hot": 2222,
      "hood": 2223,
      "mutt": 2224,
      "pill": 2225,
      "save": 2226,
      "##mer": 2227,
      "##ud": 2228,
      "##cue": 2229,
      "##ten": 2230,
      "##rely": 2231,
      "##asting": 2232,
      "skill": 2233,
      "scan": 2234,
      "words": 2235,
      "dribbling": 2236,
      "against": 2237,
      "offers": 2238,
      "##ocular": 2239,
      "gras": 2240,
      "hopping": 2241,
      "rubbing": 2242,
      "village": 2243,
      "frame": 2244,
      "rescue": 2245,
      "break": 2246,
      "guesses": 2247,
      "sneeze": 2248,
      "number": 2249,
      "special": 2250,
      "binocular": 2251,
      "dangerous": 2252,
      "hesit": 2253,
      "binoculars": 2254,
      "bur": 2255,
      "cream": 2256,
      "flew": 2257,
      "perf": 2258,
      "used": 2259,
      "wing": 2260,
      "##ex": 2261,
      "##med": 2262,
      "##lf": 2263,
      "##able": 2264,
      "##tly": 2265,
      "##ases": 2266,
      "she": 2267,
      "apples": 2268,
      "shake": 2269,
      "sleeps": 2270,
      "decl": 2271,
      "decor": 2272,
      "##riedly": 2273,
      "thrown": 2274,
      "throwing": 2275,
      "hurriedly": 2276,
      "remot": 2277,
      "closely": 2278,
      "colorful": 2279,
      "mask": 2280,
      "understands": 2281,
      "orders": 2282,
      "aiming": 2283,
      "pupp": 2284,
      "control": 2285,
      "discussing": 2286,
      "collap": 2287,
      "add": 2288,
      "furn": 2289,
      "gold": 2290,
      "hidd": 2291,
      "loc": 2292,
      "ri": 2293,
      "##der": 2294,
      "##iture": 2295,
      "##icy": 2296,
      "carry": 2297,
      "clot": 2298,
      "choice": 2299,
      "anx": 2300,
      "hasn": 2301,
      "allow": 2302,
      "reads": 2303,
      "##uct": 2304,
      "rememb": 2305,
      "folded": 2306,
      "heavily": 2307,
      "shoots": 2308,
      "proudly": 2309,
      "perple": 2310,
      "yawning": 2311,
      "yawns": 2312,
      "disappears": 2313,
      "loudly": 2314,
      "mumbles": 2315,
      "searching": 2316,
      "stamps": 2317,
      "freight": 2318,
      "furniture": 2319,
      "golden": 2320,
      "hidden": 2321,
      "perplexed": 2322,
      "lie": 2323,
      "pap": 2324,
      "tiny": 2325,
      "yet": 2326,
      "##mely": 2327,
      "##ire": 2328,
      "##remely": 2329,
      "##iting": 2330,
      "##ntly": 2331,
      "##epad": 2332,
      "juggling": 2333,
      "notepad": 2334,
      "weird": 2335,
      "paws": 2336,
      "prepare": 2337,
      "visits": 2338,
      "desk": 2339,
      "extremely": 2340,
      "accepts": 2341,
      "appreciates": 2342,
      "el": 2343,
      "fill": 2344,
      "fine": 2345,
      "lad": 2346,
      "my": 2347,
      "met": 2348,
      "might": 2349,
      "##use": 2350,
      "##cce": 2351,
      "thick": 2352,
      "thumb": 2353,
      "##aced": 2354,
      "placed": 2355,
      "succe": 2356,
      "arch": 2357,
      "slo": 2358,
      "##entr": 2359,
      "rabb": 2360,
      "fixed": 2361,
      "fallen": 2362,
      "teasing": 2363,
      "followed": 2364,
      "reminds": 2365,
      "missed": 2366,
      "cabinet": 2367,
      "stuffs": 2368,
      "pretends": 2369,
      "concentr": 2370,
      "fails": 2371,
      "counting": 2372,
      "promise": 2373,
      "pract": 2374,
      "argu": 2375,
      "circle": 2376,
      "scanned": 2377,
      "succeed": 2378,
      "rabbit": 2379,
      "lear": 2380,
      "rack": 2381,
      "ve": 2382,
      "##ends": 2383,
      "##ub": 2384,
      "toto": 2385,
      "##ayon": 2386,
      "skate": 2387,
      "upward": 2388,
      "ann": 2389,
      "sledge": 2390,
      "lightening": 2391,
      "chairs": 2392,
      "curiously": 2393,
      "salad": 2394,
      "crayon": 2395,
      "bridge": 2396,
      "introducing": 2397,
      "blowing": 2398,
      "serving": 2399,
      "charms": 2400,
      "crews": 2401,
      "remote": 2402,
      "puppet": 2403,
      "dance": 2404,
      "enc": 2405,
      "elec": 2406,
      "kind": 2407,
      "mid": 2408,
      "push": 2409,
      "tit": 2410,
      "wr": 2411,
      "wide": 2412,
      "poster": 2413,
      "inj": 2414,
      "##iti": 2415,
      "##toise": 2416,
      "flag": 2417,
      "life": 2418,
      "##ffiti": 2419,
      "lights": 2420,
      "snowmen": 2421,
      "cheers": 2422,
      "dives": 2423,
      "##boat": 2424,
      "graffiti": 2425,
      "reluct": 2426,
      "bags": 2427,
      "warning": 2428,
      "shoot": 2429,
      "fighting": 2430,
      "forgive": 2431,
      "correc": 2432,
      "mailbox": 2433,
      "further": 2434,
      "discovers": 2435,
      "tortoise": 2436,
      "paper": 2437,
      "elect": 2438,
      "title": 2439,
      "lifeboat": 2440,
      "hig": 2441,
      "las": 2442,
      "med": 2443,
      "##mmer": 2444,
      "##ition": 2445,
      "ate": 2446,
      "shove": 2447,
      "##ages": 2448,
      "summer": 2449,
      "lands": 2450,
      "seek": 2451,
      "##erent": 2452,
      "starting": 2453,
      "yells": 2454,
      "trains": 2455,
      "glow": 2456,
      "paints": 2457,
      "must": 2458,
      "inter": 2459,
      "explained": 2460,
      "meaning": 2461,
      "tastes": 2462,
      "prepared": 2463,
      "expresses": 2464,
      "hoop": 2465,
      "smells": 2466,
      "different": 2467,
      "doubt": 2468,
      "conduc": 2469,
      "ladder": 2470,
      "higher": 2471,
      "bir": 2472,
      "crying": 2473,
      "fau": 2474,
      "sings": 2475,
      "wet": 2476,
      "winning": 2477,
      "##rance": 2478,
      "##ires": 2479,
      "##nic": 2480,
      "##lt": 2481,
      "##oves": 2482,
      "tow": 2483,
      "##icult": 2484,
      "shy": 2485,
      "##poby": 2486,
      "##post": 2487,
      "picnic": 2488,
      "##ocking": 2489,
      "grad": 2490,
      "entrance": 2491,
      "prepares": 2492,
      "expression": 2493,
      "exchang": 2494,
      "difficult": 2495,
      "burning": 2496,
      "repeated": 2497,
      "denies": 2498,
      "screams": 2499
    }
  }
}